{
  "version": "1.0",
  "truncation": null,
  "padding": null,
  "added_tokens": [
    {
      "id": 0,
      "special": true,
      "content": "[PAD]",
      "single_word": false,
      "lstrip": false,
      "rstrip": false,
      "normalized": false
    },
    {
      "id": 1,
      "special": true,
      "content": "[UNK]",
      "single_word": false,
      "lstrip": false,
      "rstrip": false,
      "normalized": false
    },
    {
      "id": 2,
      "special": true,
      "content": "[CLS]",
      "single_word": false,
      "lstrip": false,
      "rstrip": false,
      "normalized": false
    },
    {
      "id": 3,
      "special": true,
      "content": "[MASK]",
      "single_word": false,
      "lstrip": false,
      "rstrip": false,
      "normalized": false
    }
  ],
  "normalizer": {
    "type": "Sequence",
    "normalizers": [
      {
        "type": "Lowercase"
      },
      {
        "type": "NFKD"
      },
      {
        "type": "StripAccents"
      }
    ]
  },
  "pre_tokenizer": {
    "type": "Sequence",
    "pretokenizers": [
      {
        "type": "Whitespace"
      },
      {
        "type": "Digits",
        "individual_digits": false
      }
    ]
  },
  "post_processor": null,
  "decoder": null,
  "model": {
    "type": "WordPiece",
    "unk_token": "[UNK]",
    "continuing_subword_prefix": "##",
    "max_input_chars_per_word": 100,
    "vocab": {
      "[PAD]": 0,
      "[UNK]": 1,
      "[CLS]": 2,
      "[MASK]": 3,
      "!": 4,
      "\"": 5,
      "#": 6,
      "%": 7,
      "&": 8,
      "'": 9,
      "(": 10,
      ")": 11,
      "*": 12,
      "+": 13,
      ",": 14,
      "-": 15,
      ".": 16,
      "/": 17,
      "0": 18,
      "1": 19,
      "2": 20,
      "3": 21,
      "4": 22,
      "5": 23,
      "6": 24,
      "7": 25,
      "8": 26,
      "9": 27,
      ":": 28,
      ";": 29,
      "<": 30,
      "=": 31,
      ">": 32,
      "?": 33,
      "@": 34,
      "[": 35,
      "\\": 36,
      "]": 37,
      "_": 38,
      "`": 39,
      "a": 40,
      "b": 41,
      "c": 42,
      "d": 43,
      "e": 44,
      "f": 45,
      "g": 46,
      "h": 47,
      "i": 48,
      "j": 49,
      "k": 50,
      "l": 51,
      "m": 52,
      "n": 53,
      "o": 54,
      "p": 55,
      "q": 56,
      "r": 57,
      "s": 58,
      "t": 59,
      "u": 60,
      "v": 61,
      "w": 62,
      "x": 63,
      "y": 64,
      "z": 65,
      "{": 66,
      "~": 67,
      "×": 68,
      "##a": 69,
      "##d": 70,
      "##i": 71,
      "##o": 72,
      "##s": 73,
      "##u": 74,
      "##r": 75,
      "##g": 76,
      "##e": 77,
      "##y": 78,
      "##v": 79,
      "##m": 80,
      "##t": 81,
      "##x": 82,
      "##n": 83,
      "##l": 84,
      "##f": 85,
      "##p": 86,
      "##b": 87,
      "##h": 88,
      "##c": 89,
      "##k": 90,
      "##_": 91,
      "##z": 92,
      "##1": 93,
      "##5": 94,
      "##w": 95,
      "##j": 96,
      "##7": 97,
      "##0": 98,
      "##;": 99,
      "##2": 100,
      "##,": 101,
      "##-": 102,
      "##q": 103,
      "##3": 104,
      "##4": 105,
      "##+": 106,
      "##)": 107,
      "##/": 108,
      "##9": 109,
      "##*": 110,
      "##6": 111,
      "##=": 112,
      "##!": 113,
      "##.": 114,
      "##?": 115,
      "##'": 116,
      "##8": 117,
      "##(": 118,
      "##:": 119,
      "##\"": 120,
      "##\\": 121,
      "##>": 122,
      "##<": 123,
      "##%": 124,
      "###": 125,
      "##]": 126,
      "##~": 127,
      "##`": 128,
      "##on": 129,
      "##__": 130,
      "##al": 131,
      "##he": 132,
      "##in": 133,
      "##ar": 134,
      "##at": 135,
      "##or": 136,
      "##re": 137,
      "##ion": 138,
      "the": 139,
      "##st": 140,
      "##er": 141,
      "##ed": 142,
      "##le": 143,
      "##nd": 144,
      "##it": 145,
      "##en": 146,
      "##____": 147,
      "##om": 148,
      "is": 149,
      "___": 150,
      "##ic": 151,
      "no": 152,
      "and": 153,
      "in": 154,
      "##ation": 155,
      "re": 156,
      "##ss": 157,
      "of": 158,
      "##is": 159,
      "##ing": 160,
      "che": 161,
      "chest": 162,
      "##di": 163,
      "##as": 164,
      "##ac": 165,
      "##ou": 166,
      "##il": 167,
      "fin": 168,
      "##ith": 169,
      "##ng": 170,
      "with": 171,
      "##um": 172,
      "##ort": 173,
      "##gh": 174,
      "##ul": 175,
      "##te": 176,
      "##ent": 177,
      "##ne": 178,
      "##us": 179,
      "##________": 180,
      "##ia": 181,
      "are": 182,
      "##mal": 183,
      "##igh": 184,
      "com": 185,
      "##ight": 186,
      "##neum": 187,
      "pneum": 188,
      "##id": 189,
      "comp": 190,
      "##ur": 191,
      "con": 192,
      "##ff": 193,
      "compar": 194,
      "rep": 195,
      "##es": 196,
      "##ph": 197,
      "##ct": 198,
      "##ffus": 199,
      "##ra": 200,
      "ple": 201,
      "effus": 202,
      "effusion": 203,
      "##ot": 204,
      "im": 205,
      "##em": 206,
      "right": 207,
      "##ardi": 208,
      "##ear": 209,
      "##ly": 210,
      "##ro": 211,
      "report": 212,
      "##ch": 213,
      "le": 214,
      "pleur": 215,
      "##eral": 216,
      "final": 217,
      "lu": 218,
      "there": 219,
      "##hor": 220,
      "pleural": 221,
      "lung": 222,
      "imp": 223,
      "st": 224,
      "cardi": 225,
      "##ft": 226,
      "##ison": 227,
      "comparison": 228,
      "##ress": 229,
      "##ateral": 230,
      "ex": 231,
      "##ol": 232,
      "to": 233,
      "##ce": 234,
      "##ary": 235,
      "##ression": 236,
      "##ding": 237,
      "##ble": 238,
      "##ulm": 239,
      "##an": 240,
      "impression": 241,
      "##onary": 242,
      "##og": 243,
      "ra": 244,
      "##ulmonary": 245,
      "##ication": 246,
      "left": 247,
      "##ormal": 248,
      "finding": 249,
      "findings": 250,
      "##ax": 251,
      "ap": 252,
      "##othor": 253,
      "lo": 254,
      "radi": 255,
      "or": 256,
      "pneumothor": 257,
      "pneumothorax": 258,
      "##ogra": 259,
      "##ograph": 260,
      "##able": 261,
      "radiograph": 262,
      "pa": 263,
      "ind": 264,
      "##ang": 265,
      "##ew": 266,
      "lateral": 267,
      "##et": 268,
      "##ist": 269,
      "##edia": 270,
      "indication": 271,
      "ev": 272,
      "##stin": 273,
      "##ediastin": 274,
      "##am": 275,
      "for": 276,
      "fr": 277,
      "##ld": 278,
      "##ate": 279,
      "##________________": 280,
      "normal": 281,
      "##ter": 282,
      "##cu": 283,
      "##ue": 284,
      "exam": 285,
      "pro": 286,
      "pulmonary": 287,
      "##ediastinal": 288,
      "##ub": 289,
      "se": 290,
      "##ve": 291,
      "un": 292,
      "cons": 293,
      "acu": 294,
      "acute": 295,
      "##pac": 296,
      "ch": 297,
      "##ilar": 298,
      "##lect": 299,
      "si": 300,
      "##ri": 301,
      "##ination": 302,
      "##hou": 303,
      "pneumon": 304,
      "##iew": 305,
      "##res": 306,
      "##ous": 307,
      "pneumonia": 308,
      "##ema": 309,
      "##ity": 310,
      "on": 311,
      "##ni": 312,
      "opac": 313,
      "examination": 314,
      "at": 315,
      "##ge": 316,
      "view": 317,
      "te": 318,
      "po": 319,
      "##ory": 320,
      "##op": 321,
      "be": 322,
      "low": 323,
      "old": 324,
      "year": 325,
      "##que": 326,
      "##oc": 327,
      "cardiom": 328,
      "##olid": 329,
      "consolid": 330,
      "ed": 331,
      "hist": 332,
      "history": 333,
      "consolidation": 334,
      "tech": 335,
      "seen": 336,
      "techni": 337,
      "technique": 338,
      "edema": 339,
      "ate": 340,
      "atelect": 341,
      "##asis": 342,
      "##iti": 343,
      "lungs": 344,
      "##ver": 345,
      "atelectasis": 346,
      "//": 347,
      "##ated": 348,
      "mil": 349,
      "mild": 350,
      "##anged": 351,
      "sil": 352,
      "##houet": 353,
      "silhouet": 354,
      "eval": 355,
      "silhouette": 356,
      "de": 357,
      "##lear": 358,
      "clear": 359,
      "##per": 360,
      "##changed": 361,
      "unchanged": 362,
      "##ad": 363,
      "cont": 364,
      "ab": 365,
      "##our": 366,
      "inter": 367,
      "not": 368,
      "app": 369,
      "##ain": 370,
      "##ase": 371,
      "tub": 372,
      "##ocal": 373,
      "port": 374,
      "th": 375,
      "li": 376,
      "##ular": 377,
      "##ze": 378,
      "up": 379,
      "size": 380,
      "##if": 381,
      "hear": 382,
      "heart": 383,
      "##ati": 384,
      "focal": 385,
      "pri": 386,
      "as": 387,
      "prior": 388,
      "tube": 389,
      "##ence": 390,
      "chang": 391,
      "##cess": 392,
      "##ect": 393,
      "mediastinal": 394,
      "mo": 395,
      "contour": 396,
      "views": 397,
      "process": 398,
      "##ud": 399,
      "##ib": 400,
      "##ir": 401,
      "from": 402,
      "##ip": 403,
      "we": 404,
      "##ical": 405,
      "##ities": 406,
      "##sse": 407,
      "##ow": 408,
      "##asc": 409,
      "lower": 410,
      "portable": 411,
      "contours": 412,
      "evid": 413,
      "##cre": 414,
      "cardiac": 415,
      "##ut": 416,
      "##mall": 417,
      "small": 418,
      "##der": 419,
      "##gest": 420,
      "radiographs": 421,
      "evidence": 422,
      "cardiomediastinal": 423,
      "inf": 424,
      "vasc": 425,
      "cou": 426,
      "lob": 427,
      "cardiop": 428,
      "##val": 429,
      "cardiopulmonary": 430,
      "##ine": 431,
      "evalu": 432,
      "##ont": 433,
      "##ement": 434,
      "##ure": 435,
      "hilar": 436,
      "##________________________________": 437,
      "##ontal": 438,
      "per": 439,
      "##one": 440,
      "##resent": 441,
      "frontal": 442,
      "opacity": 443,
      "##olum": 444,
      "stable": 445,
      "appear": 446,
      "##ay": 447,
      "su": 448,
      "effusions": 449,
      "lobe": 450,
      "has": 451,
      "volum": 452,
      "bil": 453,
      "upper": 454,
      "bilateral": 455,
      "moder": 456,
      "moderate": 457,
      "##ark": 458,
      "abn": 459,
      "interval": 460,
      "abnormal": 461,
      "pre": 462,
      "al": 463,
      "##lac": 464,
      "##ition": 465,
      "##act": 466,
      "int": 467,
      "change": 468,
      "stud": 469,
      "study": 470,
      "cl": 471,
      "compared": 472,
      "##creas": 473,
      "##ious": 474,
      "en": 475,
      "##ke": 476,
      "over": 477,
      "##str": 478,
      "ct": 479,
      "dis": 480,
      "new": 481,
      "an": 482,
      "##sition": 483,
      "##horac": 484,
      "vascular": 485,
      "##ant": 486,
      "##atient": 487,
      "man": 488,
      "patient": 489,
      "##arg": 490,
      "##rem": 491,
      "##ures": 492,
      "lat": 493,
      "##her": 494,
      "post": 495,
      "##ern": 496,
      "opacities": 497,
      "rec": 498,
      "##creased": 499,
      "##ided": 500,
      "##mit": 501,
      "##eg": 502,
      "volumes": 503,
      "within": 504,
      "##ial": 505,
      "position": 506,
      "fe": 507,
      "like": 508,
      "noted": 509,
      "##aly": 510,
      "##asilar": 511,
      "##os": 512,
      "plac": 513,
      "##cl": 514,
      "sub": 515,
      "pain": 516,
      "likely": 517,
      "##horacic": 518,
      "evaluate": 519,
      "mid": 520,
      "##vious": 521,
      "rem": 522,
      "hem": 523,
      "##egaly": 524,
      "cardiomegaly": 525,
      "##arkable": 526,
      "##ron": 527,
      "congest": 528,
      "##rac": 529,
      "unrem": 530,
      "unremarkable": 531,
      "previous": 532,
      "##out": 533,
      "enl": 534,
      "enlarg": 535,
      "limit": 536,
      "##gm": 537,
      "cough": 538,
      "##uct": 539,
      "##ll": 540,
      "##ther": 541,
      "##ult": 542,
      "wh": 543,
      "##ath": 544,
      "res": 545,
      "tip": 546,
      "##ied": 547,
      "ob": 548,
      "##oman": 549,
      "woman": 550,
      "##ragm": 551,
      "##ification": 552,
      "present": 553,
      "aort": 554,
      "##phragm": 555,
      "##ved": 556,
      "congestion": 557,
      "hy": 558,
      "ag": 559,
      "osse": 560,
      "none": 561,
      "osseous": 562,
      "sh": 563,
      "base": 564,
      "##istent": 565,
      "##ified": 566,
      "without": 567,
      "clin": 568,
      "clinical": 569,
      "##nt": 570,
      "but": 571,
      "increased": 572,
      "##low": 573,
      "again": 574,
      "min": 575,
      "##ssess": 576,
      "##ive": 577,
      "air": 578,
      "assess": 579,
      "were": 580,
      "sin": 581,
      "di": 582,
      "limits": 583,
      "par": 584,
      "##ich": 585,
      "which": 586,
      "may": 587,
      "this": 588,
      "impro": 589,
      "str": 590,
      "##ail": 591,
      "struct": 592,
      "##imal": 593,
      "placement": 594,
      "sided": 595,
      "abnormality": 596,
      "##lu": 597,
      "##emon": 598,
      "##emonstr": 599,
      "other": 600,
      "infect": 601,
      "##se": 602,
      "##entr": 603,
      "by": 604,
      "structures": 605,
      "##ening": 606,
      "##ys": 607,
      "since": 608,
      "rib": 609,
      "sp": 610,
      "end": 611,
      "fract": 612,
      "##atus": 613,
      "##omy": 614,
      "changes": 615,
      "##so": 616,
      "sl": 617,
      "status": 618,
      "been": 619,
      "demonstr": 620,
      "slight": 621,
      "bib": 622,
      "##ness": 623,
      "##pir": 624,
      "sug": 625,
      "thoracic": 626,
      "well": 627,
      "suggest": 628,
      "##nded": 629,
      "enlarged": 630,
      "ad": 631,
      "##ior": 632,
      "##ative": 633,
      "##ag": 634,
      "hemi": 635,
      "##dia": 636,
      "read": 637,
      "##diaphragm": 638,
      "##athe": 639,
      "##atheter": 640,
      "___f": 641,
      "catheter": 642,
      "##chy": 643,
      "##erm": 644,
      "bibasilar": 645,
      "___m": 646,
      "recent": 647,
      "line": 648,
      "##ens": 649,
      "mult": 650,
      "##itial": 651,
      "##orm": 652,
      "##arge": 653,
      "##rache": 654,
      "##ates": 655,
      "wet": 656,
      "##omin": 657,
      "large": 658,
      "id": 659,
      "##ual": 660,
      "wor": 661,
      "ident": 662,
      "hemidiaphragm": 663,
      "interst": 664,
      "def": 665,
      "pers": 666,
      "##im": 667,
      "##tain": 668,
      "ref": 669,
      "identified": 670,
      "##ermin": 671,
      "##right": 672,
      "interstitial": 673,
      "fever": 674,
      "upright": 675,
      "minimal": 676,
      "sig": 677,
      "bas": 678,
      "##ach": 679,
      "abnormalities": 680,
      "cal": 681,
      "pn": 682,
      "##ject": 683,
      "could": 684,
      "##av": 685,
      "##ab": 686,
      "##iz": 687,
      "ju": 688,
      "aorta": 689,
      "remain": 690,
      "obtain": 691,
      "##clud": 692,
      "pna": 693,
      "##vc": 694,
      "most": 695,
      "conc": 696,
      "obtained": 697,
      "termin": 698,
      "project": 699,
      "sc": 700,
      "represent": 701,
      "calc": 702,
      "due": 703,
      "##ree": 704,
      "can": 705,
      "ha": 706,
      "now": 707,
      "##tr": 708,
      "am": 709,
      "##vel": 710,
      "##lev": 711,
      "bre": 712,
      "infection": 713,
      "##ob": 714,
      "##ance": 715,
      "##ise": 716,
      "svc": 717,
      "exp": 718,
      "reflect": 719,
      "##ore": 720,
      "concern": 721,
      "dr": 722,
      "poss": 723,
      "ver": 724,
      "##ially": 725,
      "cm": 726,
      "pic": 727,
      "##ast": 728,
      "exclud": 729,
      "##age": 730,
      "pm": 731,
      "appro": 732,
      "##ature": 733,
      "improved": 734,
      "dise": 735,
      "disease": 736,
      "##________________________________________________________________": 737,
      "##ig": 738,
      "_________________________________________________________________": 739,
      "##_____": 740,
      "##_____________": 741,
      "______________________________________________________________________________": 742,
      "slightly": 743,
      "ret": 744,
      "infil": 745,
      "##piration": 746,
      "nod": 747,
      "infiltr": 748,
      "##wise": 749,
      "##all": 750,
      "otherwise": 751,
      "##ediastinum": 752,
      "lead": 753,
      "please": 754,
      "sur": 755,
      "ar": 756,
      "appearance": 757,
      "##cardi": 758,
      "##ost": 759,
      "breath": 760,
      "##ronch": 761,
      "chron": 762,
      "##red": 763,
      "vascul": 764,
      "hyper": 765,
      "picc": 766,
      "evaluation": 767,
      "et": 768,
      "vasculature": 769,
      "chronic": 770,
      "opacification": 771,
      "consistent": 772,
      "spine": 773,
      "intact": 774,
      "##hough": 775,
      "also": 776,
      "short": 777,
      "wors": 778,
      "##ule": 779,
      "abd": 780,
      "##osis": 781,
      "mal": 782,
      "defin": 783,
      "##ite": 784,
      "##ingle": 785,
      "stom": 786,
      "stomach": 787,
      "single": 788,
      "##iple": 789,
      "multiple": 790,
      "pac": 791,
      "##ard": 792,
      "aft": 793,
      "have": 794,
      "##ment": 795,
      "after": 796,
      "mildly": 797,
      "appears": 798,
      "free": 799,
      "##ide": 800,
      "retro": 801,
      "pr": 802,
      "remo": 803,
      "was": 804,
      "##lated": 805,
      "basilar": 806,
      "ext": 807,
      "stern": 808,
      "imag": 809,
      "##lying": 810,
      "aspiration": 811,
      "##li": 812,
      "##fic": 813,
      "##mph": 814,
      "##ren": 815,
      "promin": 816,
      "mediastinum": 817,
      "##od": 818,
      "##owe": 819,
      "##ible": 820,
      "dia": 821,
      "shortness": 822,
      "sim": 823,
      "more": 824,
      "fracture": 825,
      "he": 826,
      "##ns": 827,
      "##cardiac": 828,
      "##nific": 829,
      "##racheal": 830,
      "retrocardiac": 831,
      "##entral": 832,
      "##ized": 833,
      "signific": 834,
      "similar": 835,
      "persistent": 836,
      "central": 837,
      "##stric": 838,
      "resol": 839,
      "than": 840,
      "prov": 841,
      "##erative": 842,
      "##astric": 843,
      "bronch": 844,
      "car": 845,
      "vis": 846,
      "significant": 847,
      "hyp": 848,
      "##oph": 849,
      "##ortu": 850,
      "##ating": 851,
      "flu": 852,
      "tortu": 853,
      "bases": 854,
      "silhouettes": 855,
      "##atic": 856,
      "##ak": 857,
      "##ction": 858,
      "av": 859,
      "##me": 860,
      "concerning": 861,
      "reg": 862,
      "som": 863,
      "recom": 864,
      "super": 865,
      "##vere": 866,
      "ear": 867,
      "recomme": 868,
      "provided": 869,
      "below": 870,
      "fluid": 871,
      "severe": 872,
      "atri": 873,
      "cor": 874,
      "##ade": 875,
      "##ove": 876,
      "##rou": 877,
      "dated": 878,
      "mark": 879,
      "##ill": 880,
      "##enchy": 881,
      "perf": 882,
      "##stant": 883,
      "infiltrate": 884,
      "##anded": 885,
      "##ting": 886,
      "made": 887,
      "kn": 888,
      "##ap": 889,
      "above": 890,
      "excluded": 891,
      "parenchy": 892,
      "lin": 893,
      "ac": 894,
      "bon": 895,
      "apical": 896,
      "##crease": 897,
      "deg": 898,
      "intr": 899,
      "part": 900,
      "##ring": 901,
      "##athoracic": 902,
      "out": 903,
      "dist": 904,
      "intrathoracic": 905,
      "ne": 906,
      "##nder": 907,
      "elev": 908,
      "chf": 909,
      "aortic": 910,
      "##tle": 911,
      "region": 912,
      "terminates": 913,
      "howe": 914,
      "however": 915,
      "##otomy": 916,
      "##nea": 917,
      "##otracheal": 918,
      "##ass": 919,
      "endotracheal": 920,
      "perform": 921,
      "worsening": 922,
      "##inf": 923,
      "##ong": 924,
      "fol": 925,
      "it": 926,
      "dev": 927,
      "##male": 928,
      "female": 929,
      "diff": 930,
      "remains": 931,
      "pat": 932,
      "##pnea": 933,
      "##erior": 934,
      "prob": 935,
      "##ailable": 936,
      "##nction": 937,
      "carin": 938,
      "##qu": 939,
      "available": 940,
      "##ution": 941,
      "day": 942,
      "##own": 943,
      "expanded": 944,
      "definite": 945,
      "tra": 946,
      "under": 947,
      "scar": 948,
      "follow": 949,
      "##icular": 950,
      "top": 951,
      "visual": 952,
      "that": 953,
      "ng": 954,
      "sup": 955,
      "possible": 956,
      "dys": 957,
      "performed": 958,
      "male": 959,
      "##enous": 960,
      "fractures": 961,
      "volume": 962,
      "sternotomy": 963,
      "bony": 964,
      "##etting": 965,
      "##veral": 966,
      "if": 967,
      "##ably": 968,
      "visualized": 969,
      "setting": 970,
      "##rent": 971,
      "bet": 972,
      "surg": 973,
      "carina": 974,
      "devic": 975,
      "##ross": 976,
      "##ced": 977,
      "parenchymal": 978,
      "conf": 979,
      "hyperinf": 980,
      "##iv": 981,
      "scarring": 982,
      "##pri": 983,
      "patchy": 984,
      "dyspnea": 985,
      "##priate": 986,
      "ray": 987,
      "##stion": 988,
      "appropriate": 989,
      "que": 990,
      "enlargement": 991,
      "question": 992,
      "##rough": 993,
      "loc": 994,
      "comparisons": 995,
      "decreased": 996,
      "junction": 997,
      "projecting": 998,
      "through": 999,
      "ventr": 1000,
      "demonstrated": 1001,
      "##iss": 1002,
      "##renic": 1003,
      "atrium": 1004,
      "mass": 1005,
      "calcification": 1006,
      "##line": 1007,
      "##omen": 1008,
      "abdomen": 1009,
      "##ophrenic": 1010,
      "wi": 1011,
      "##iated": 1012,
      "degen": 1013,
      "nodule": 1014,
      "degenerative": 1015,
      "cost": 1016,
      "col": 1017,
      "##icle": 1018,
      "improv": 1019,
      "linear": 1020,
      "tw": 1021,
      "clip": 1022,
      "gross": 1023,
      "two": 1024,
      "##ason": 1025,
      "reason": 1026,
      "earli": 1027,
      "cann": 1028,
      "known": 1029,
      "shou": 1030,
      "diffus": 1031,
      "should": 1032,
      "earlier": 1033,
      "diffuse": 1034,
      "tortuous": 1035,
      "ends": 1036,
      "venous": 1037,
      "cannot": 1038,
      "##ker": 1039,
      "nas": 1040,
      "##gular": 1041,
      "fail": 1042,
      "posterior": 1043,
      "##ogastric": 1044,
      "##and": 1045,
      "clips": 1046,
      "ang": 1047,
      "diaphragm": 1048,
      "vers": 1049,
      "##lo": 1050,
      "level": 1051,
      "##reat": 1052,
      "wall": 1053,
      "better": 1054,
      "some": 1055,
      "costophrenic": 1056,
      "failure": 1057,
      "substant": 1058,
      "hil": 1059,
      "bac": 1060,
      "alt": 1061,
      "calcified": 1062,
      "##tes": 1063,
      "although": 1064,
      "##hilar": 1065,
      "##pt": 1066,
      "##oth": 1067,
      "##org": 1068,
      "imaged": 1069,
      "##entially": 1070,
      "eng": 1071,
      "##urrent": 1072,
      "nasogastric": 1073,
      "engorg": 1074,
      "wires": 1075,
      "##oma": 1076,
      "##ick": 1077,
      "grossly": 1078,
      "acc": 1079,
      "##order": 1080,
      "##pace": 1081,
      "whe": 1082,
      "demonstrate": 1083,
      "intub": 1084,
      "angle": 1085,
      "##emaker": 1086,
      "pacemaker": 1087,
      "##aces": 1088,
      "##co": 1089,
      "leads": 1090,
      "increase": 1091,
      "trache": 1092,
      "rel": 1093,
      "tele": 1094,
      "ve": 1095,
      "teleph": 1096,
      "##ond": 1097,
      "previously": 1098,
      "pt": 1099,
      "##cuss": 1100,
      "both": 1101,
      "discuss": 1102,
      "des": 1103,
      "border": 1104,
      "wid": 1105,
      "##nding": 1106,
      "underlying": 1107,
      "discussed": 1108,
      "back": 1109,
      "place": 1110,
      "overal": 1111,
      "jugular": 1112,
      "overall": 1113,
      "sy": 1114,
      "thick": 1115,
      "emph": 1116,
      "cop": 1117,
      "hyperinflated": 1118,
      "telephone": 1119,
      "##atory": 1120,
      "any": 1121,
      "##velop": 1122,
      "emphys": 1123,
      "develop": 1124,
      "10": 1125,
      "areas": 1126,
      "copd": 1127,
      "overt": 1128,
      "##ox": 1129,
      "corre": 1130,
      "improvement": 1131,
      "persist": 1132,
      "dete": 1133,
      "##nal": 1134,
      "trans": 1135,
      "##ral": 1136,
      "elevation": 1137,
      "trac": 1138,
      "fil": 1139,
      "##ened": 1140,
      "possib": 1141,
      "thickening": 1142,
      "cav": 1143,
      "contin": 1144,
      "ptx": 1145,
      "rev": 1146,
      "ass": 1147,
      "##ately": 1148,
      "##rec": 1149,
      "##ian": 1150,
      "apprec": 1151,
      "##usion": 1152,
      "ly": 1153,
      "marking": 1154,
      "resolution": 1155,
      "##osed": 1156,
      "probably": 1157,
      "prominence": 1158,
      "##ension": 1159,
      "compati": 1160,
      "loss": 1161,
      "compatible": 1162,
      "prominent": 1163,
      "##rain": 1164,
      "detect": 1165,
      "markings": 1166,
      "##cer": 1167,
      "met": 1168,
      "film": 1169,
      "emphysema": 1170,
      "##nting": 1171,
      "hypox": 1172,
      "review": 1173,
      "though": 1174,
      "obs": 1175,
      "##rib": 1176,
      "##ho": 1177,
      "infectious": 1178,
      "anter": 1179,
      "##cy": 1180,
      "along": 1181,
      "removed": 1182,
      "continu": 1183,
      "##piratory": 1184,
      "##space": 1185,
      "##laced": 1186,
      "eso": 1187,
      "esoph": 1188,
      "blu": 1189,
      "fur": 1190,
      "stand": 1191,
      "further": 1192,
      "removal": 1193,
      "##imp": 1194,
      "relev": 1195,
      "relevant": 1196,
      "superimp": 1197,
      "##edian": 1198,
      "##dle": 1199,
      "giv": 1200,
      "ventricle": 1201,
      "dob": 1202,
      "airspace": 1203,
      "anterior": 1204,
      "median": 1205,
      "sob": 1206,
      "##otic": 1207,
      "dens": 1208,
      "middle": 1209,
      "terminating": 1210,
      "##itis": 1211,
      "recommended": 1212,
      "##hoff": 1213,
      "basal": 1214,
      "##load": 1215,
      "lymph": 1216,
      "overlying": 1217,
      "given": 1218,
      "superimposed": 1219,
      "overload": 1220,
      "diffic": 1221,
      "disp": 1222,
      "bilaterally": 1223,
      "##ody": 1224,
      "##abg": 1225,
      "notification": 1226,
      "cabg": 1227,
      "difficult": 1228,
      "blunting": 1229,
      "add": 1230,
      "##olog": 1231,
      "internal": 1232,
      "##athy": 1233,
      "detected": 1234,
      "area": 1235,
      "lit": 1236,
      "wou": 1237,
      "adj": 1238,
      "great": 1239,
      "so": 1240,
      "##lap": 1241,
      "##xim": 1242,
      "assoc": 1243,
      "peri": 1244,
      "drain": 1245,
      "##lation": 1246,
      "##met": 1247,
      "little": 1248,
      "standard": 1249,
      "##port": 1250,
      "##tered": 1251,
      "##ck": 1252,
      "recommend": 1253,
      "##row": 1254,
      "approxim": 1255,
      "associated": 1256,
      "surgical": 1257,
      "##acent": 1258,
      "greater": 1259,
      "##ign": 1260,
      "fi": 1261,
      "qu": 1262,
      "approximately": 1263,
      "##opathy": 1264,
      "##up": 1265,
      "##pe": 1266,
      "adjacent": 1267,
      "##icated": 1268,
      "signs": 1269,
      "perihilar": 1270,
      "body": 1271,
      "pl": 1272,
      "distal": 1273,
      "##lete": 1274,
      "##ek": 1275,
      "calcifications": 1276,
      "would": 1277,
      "arter": 1278,
      "support": 1279,
      "side": 1280,
      "resid": 1281,
      "##pect": 1282,
      "recently": 1283,
      "adv": 1284,
      "##rant": 1285,
      "ins": 1286,
      "##ros": 1287,
      "devices": 1288,
      "fall": 1289,
      "week": 1290,
      "##ental": 1291,
      "relative": 1292,
      "exte": 1293,
      "disco": 1294,
      "substantial": 1295,
      "##ex": 1296,
      "##very": 1297,
      "cath": 1298,
      "discovery": 1299,
      "cour": 1300,
      "cancer": 1301,
      "surf": 1302,
      "prog": 1303,
      "displaced": 1304,
      "##day": 1305,
      "##clav": 1306,
      "reviewed": 1307,
      "##dies": 1308,
      "##creasing": 1309,
      "subtle": 1310,
      "subclav": 1311,
      "rule": 1312,
      "##ascular": 1313,
      "subclavian": 1314,
      "##ov": 1315,
      "tiss": 1316,
      "##ame": 1317,
      "pres": 1318,
      "collap": 1319,
      "hern": 1320,
      "hernia": 1321,
      "hila": 1322,
      "trace": 1323,
      "consolidations": 1324,
      "superior": 1325,
      "gra": 1326,
      "resolved": 1327,
      "11": 1328,
      "##rh": 1329,
      "stre": 1330,
      "##ime": 1331,
      "surfaces": 1332,
      "metast": 1333,
      "projects": 1334,
      "ij": 1335,
      "mon": 1336,
      "into": 1337,
      "##itor": 1338,
      "nodular": 1339,
      "streak": 1340,
      "version": 1341,
      "monitor": 1342,
      "##omp": 1343,
      "show": 1344,
      "##teb": 1345,
      "density": 1346,
      "non": 1347,
      "time": 1348,
      "##aus": 1349,
      "suggestive": 1350,
      "##ma": 1351,
      "deform": 1352,
      "##rial": 1353,
      "exclude": 1354,
      "##ensive": 1355,
      "##ology": 1356,
      "##ovascular": 1357,
      "thorac": 1358,
      "inform": 1359,
      "residual": 1360,
      "hypoxia": 1361,
      "increasing": 1362,
      "quad": 1363,
      "##ominal": 1364,
      "verteb": 1365,
      "##ull": 1366,
      "same": 1367,
      "intubated": 1368,
      "quadrant": 1369,
      "information": 1370,
      "positioning": 1371,
      "monitoring": 1372,
      "aer": 1373,
      "soft": 1374,
      "suggesting": 1375,
      "current": 1376,
      "moderately": 1377,
      "still": 1378,
      "enter": 1379,
      "these": 1380,
      "apex": 1381,
      "crow": 1382,
      "persists": 1383,
      "tubes": 1384,
      "##atrial": 1385,
      "##ell": 1386,
      "##ostomy": 1387,
      "##ectomy": 1388,
      "cavo": 1389,
      "abdominal": 1390,
      "##xt": 1391,
      "partially": 1392,
      "pacer": 1393,
      "cavoatrial": 1394,
      "les": 1395,
      "complete": 1396,
      "extensive": 1397,
      "changed": 1398,
      "lesion": 1399,
      "bronchovascular": 1400,
      "assessment": 1401,
      "##uctive": 1402,
      "##nds": 1403,
      "followup": 1404,
      "##cop": 1405,
      "collapse": 1406,
      "crowding": 1407,
      "red": 1408,
      "diffe": 1409,
      "##ted": 1410,
      "co": 1411,
      "minu": 1412,
      "streaky": 1413,
      "addition": 1414,
      "##metr": 1415,
      "ess": 1416,
      "##mmetr": 1417,
      "12": 1418,
      "multif": 1419,
      "less": 1420,
      "essentially": 1421,
      "##uration": 1422,
      "respiratory": 1423,
      "multifocal": 1424,
      "borderline": 1425,
      "demonstrates": 1426,
      "advan": 1427,
      "pot": 1428,
      "weak": 1429,
      "hi": 1430,
      "##un": 1431,
      "enteric": 1432,
      "##ressive": 1433,
      "pig": 1434,
      "nodules": 1435,
      "weakness": 1436,
      "##enopathy": 1437,
      "extent": 1438,
      "hemith": 1439,
      "##cending": 1440,
      "hemithor": 1441,
      "##tail": 1442,
      "pigtail": 1443,
      "##ility": 1444,
      "elevated": 1445,
      "minutes": 1446,
      "##emi": 1447,
      "vein": 1448,
      "##ane": 1449,
      "sw": 1450,
      "val": 1451,
      "sec": 1452,
      "##ulated": 1453,
      "second": 1454,
      "hemithorax": 1455,
      "sus": 1456,
      "engorgement": 1457,
      "image": 1458,
      "##eld": 1459,
      "continued": 1460,
      "vertebral": 1461,
      "comb": 1462,
      "med": 1463,
      "device": 1464,
      "field": 1465,
      "relatively": 1466,
      "limited": 1467,
      "vascularity": 1468,
      "ph": 1469,
      "##eding": 1470,
      "##el": 1471,
      "##ount": 1472,
      "stu": 1473,
      "##pl": 1474,
      "incl": 1475,
      "radiographic": 1476,
      "##atal": 1477,
      "today": 1478,
      "hiatal": 1479,
      "##ene": 1480,
      "##aneous": 1481,
      "studies": 1482,
      "##ies": 1483,
      "dual": 1484,
      "minimally": 1485,
      "arch": 1486,
      "##uding": 1487,
      "apprecia": 1488,
      "mental": 1489,
      "##cler": 1490,
      "marked": 1491,
      "tracheostomy": 1492,
      "##osity": 1493,
      "semi": 1494,
      "fib": 1495,
      "including": 1496,
      "engorged": 1497,
      "##rect": 1498,
      "weeks": 1499,
      "tortuosity": 1500,
      "larg": 1501,
      "##ageal": 1502,
      "larger": 1503,
      "asy": 1504,
      "##icardi": 1505,
      "stent": 1506,
      "probable": 1507,
      "##operative": 1508,
      "decrease": 1509,
      "##ward": 1510,
      "##ls": 1511,
      "artery": 1512,
      "tissue": 1513,
      "days": 1514,
      "##zy": 1515,
      "combination": 1516,
      "potentially": 1517,
      "its": 1518,
      "compression": 1519,
      "valve": 1520,
      "prod": 1521,
      "##th": 1522,
      "possibly": 1523,
      "##pical": 1524,
      "fl": 1525,
      "asymmetr": 1526,
      "ep": 1527,
      "hx": 1528,
      "pulm": 1529,
      "prox": 1530,
      "##oli": 1531,
      "altered": 1532,
      "proximal": 1533,
      "somew": 1534,
      "##hat": 1535,
      "somewhat": 1536,
      "related": 1537,
      "ett": 1538,
      "hypert": 1539,
      "##cut": 1540,
      "##idered": 1541,
      "considered": 1542,
      "cx": 1543,
      "worsened": 1544,
      "zone": 1545,
      "##tion": 1546,
      "tach": 1547,
      "##cutaneous": 1548,
      "requ": 1549,
      "note": 1550,
      "constant": 1551,
      "do": 1552,
      "one": 1553,
      "presenting": 1554,
      "metastatic": 1555,
      "##ery": 1556,
      "##ically": 1557,
      "infiltrates": 1558,
      "tachy": 1559,
      "cxr": 1560,
      "##ected": 1561,
      "when": 1562,
      "##ile": 1563,
      "##ome": 1564,
      "##ving": 1565,
      "esophag": 1566,
      "portion": 1567,
      "##entu": 1568,
      "midline": 1569,
      "accentu": 1570,
      "##erv": 1571,
      "##ider": 1572,
      "##icardial": 1573,
      "versus": 1574,
      "widening": 1575,
      "cir": 1576,
      "rot": 1577,
      "##isting": 1578,
      "loculated": 1579,
      "##mun": 1580,
      "expected": 1581,
      "##sis": 1582,
      "##quent": 1583,
      "fevers": 1584,
      "early": 1585,
      "##lowing": 1586,
      "obscu": 1587,
      "##eat": 1588,
      "very": 1589,
      "subcutaneous": 1590,
      "##ection": 1591,
      "##arent": 1592,
      "suggests": 1593,
      "surgery": 1594,
      "##ations": 1595,
      "##ribution": 1596,
      "apparent": 1597,
      "##ple": 1598,
      "##mitted": 1599,
      "amount": 1600,
      "appreciable": 1601,
      "##nul": 1602,
      "##pic": 1603,
      "supine": 1604,
      "least": 1605,
      "assessed": 1606,
      "##ere": 1607,
      "represents": 1608,
      "##ause": 1609,
      "aeration": 1610,
      "additional": 1611,
      "drainage": 1612,
      "head": 1613,
      "shoulder": 1614,
      "advanced": 1615,
      "##clerotic": 1616,
      "feeding": 1617,
      "##are": 1618,
      "em": 1619,
      "rou": 1620,
      "vs": 1621,
      "neck": 1622,
      "##bhoff": 1623,
      "dobbhoff": 1624,
      "tin": 1625,
      ".,": 1626,
      "sternal": 1627,
      "##fore": 1628,
      "tiny": 1629,
      "possibility": 1630,
      "##oliosis": 1631,
      "press": 1632,
      "cta": 1633,
      "productive": 1634,
      "result": 1635,
      "deformity": 1636,
      "trachea": 1637,
      "##lacement": 1638,
      "intubation": 1639,
      "images": 1640,
      "atelectatic": 1641,
      "intra": 1642,
      "postoperative": 1643,
      "developing": 1644,
      "significantly": 1645,
      "location": 1646,
      "allowing": 1647,
      "fiss": 1648,
      "conflu": 1649,
      "conv": 1650,
      "lay": 1651,
      "##ering": 1652,
      "dobhoff": 1653,
      "descending": 1654,
      "compl": 1655,
      "subse": 1656,
      "subsequent": 1657,
      "vesse": 1658,
      "##cif": 1659,
      "cp": 1660,
      "clav": 1661,
      "lobes": 1662,
      "mm": 1663,
      "##itive": 1664,
      "layering": 1665,
      "pressure": 1666,
      "secondary": 1667,
      "existing": 1668,
      "differen": 1669,
      "particular": 1670,
      "knob": 1671,
      "pericardial": 1672,
      "granul": 1673,
      "esophagus": 1674,
      "requi": 1675,
      "compressive": 1676,
      "##pit": 1677,
      "ventricular": 1678,
      "inc": 1679,
      "##ces": 1680,
      "compon": 1681,
      "component": 1682,
      "ling": 1683,
      "consider": 1684,
      "##mpt": 1685,
      "correlation": 1686,
      "date": 1687,
      "appreciated": 1688,
      "cirrh": 1689,
      "hard": 1690,
      "##edicated": 1691,
      "cirrhosis": 1692,
      "##ency": 1693,
      "shi": 1694,
      "repeat": 1695,
      "extends": 1696,
      "shift": 1697,
      "whee": 1698,
      "pred": 1699,
      "traum": 1700,
      "dil": 1701,
      "athe": 1702,
      "atheros": 1703,
      "##plant": 1704,
      "##ization": 1705,
      "course": 1706,
      "lymphad": 1707,
      "##ncop": 1708,
      "pull": 1709,
      "##ware": 1710,
      "inv": 1711,
      "dedicated": 1712,
      "##osition": 1713,
      "##py": 1714,
      "##int": 1715,
      "##ention": 1716,
      "##ste": 1717,
      "lymphadenopathy": 1718,
      "before": 1719,
      "pect": 1720,
      "substantially": 1721,
      "scan": 1722,
      "hypertension": 1723,
      "##eter": 1724,
      "transplant": 1725,
      "##irm": 1726,
      "atrial": 1727,
      "lines": 1728,
      "##side": 1729,
      "##bar": 1730,
      "cours": 1731,
      "presence": 1732,
      "confirm": 1733,
      "##kle": 1734,
      "worse": 1735,
      "##itone": 1736,
      "##ense": 1737,
      "hardware": 1738,
      "commun": 1739,
      "ast": 1740,
      "##ully": 1741,
      "##ysis": 1742,
      "long": 1743,
      "pneumothoraces": 1744,
      "##let": 1745,
      "ty": 1746,
      "near": 1747,
      "##ertion": 1748,
      "progression": 1749,
      "##rop": 1750,
      "atherosclerotic": 1751,
      "asth": 1752,
      "confluent": 1753,
      "ngt": 1754,
      "vessels": 1755,
      "thor": 1756,
      "evaluated": 1757,
      "shows": 1758,
      "15": 1759,
      "reflecting": 1760,
      "asthma": 1761,
      "invol": 1762,
      "fully": 1763,
      "##phal": 1764,
      "##uring": 1765,
      "##mo": 1766,
      "imaging": 1767,
      "thorax": 1768,
      "##oral": 1769,
      "only": 1770,
      "##ops": 1771,
      "##inal": 1772,
      "placed": 1773,
      "##yt": 1774,
      "##xp": 1775,
      "development": 1776,
      "##sion": 1777,
      "differences": 1778,
      "several": 1779,
      "##othorax": 1780,
      "hour": 1781,
      "replacement": 1782,
      "crac": 1783,
      "reflects": 1784,
      "completely": 1785,
      "wed": 1786,
      "clinically": 1787,
      "##enal": 1788,
      "defined": 1789,
      "##ator": 1790,
      "spe": 1791,
      "malign": 1792,
      "cerv": 1793,
      "cell": 1794,
      "hypere": 1795,
      "congestive": 1796,
      "gen": 1797,
      "syncop": 1798,
      "##ula": 1799,
      "##tesis": 1800,
      "crackle": 1801,
      "sinus": 1802,
      "perip": 1803,
      "op": 1804,
      "##ole": 1805,
      "##read": 1806,
      "crackles": 1807,
      "outside": 1808,
      "rounded": 1809,
      "medial": 1810,
      "hyperexp": 1811,
      "##cing": 1812,
      "##entesis": 1813,
      "minor": 1814,
      "check": 1815,
      "dense": 1816,
      "hazy": 1817,
      "high": 1818,
      "##ural": 1819,
      "degree": 1820,
      "leu": 1821,
      "##umeral": 1822,
      "##resp": 1823,
      "##mptom": 1824,
      "peripher": 1825,
      "all": 1826,
      "resection": 1827,
      "leuk": 1828,
      "correct": 1829,
      "##est": 1830,
      "cervical": 1831,
      "##ris": 1832,
      "inj": 1833,
      "presents": 1834,
      "wheez": 1835,
      "asymmetric": 1836,
      "injur": 1837,
      "extending": 1838,
      "##cardia": 1839,
      "inspiration": 1840,
      "##ogene": 1841,
      "main": 1842,
      "who": 1843,
      "predomin": 1844,
      "obscured": 1845,
      "unf": 1846,
      "path": 1847,
      "treat": 1848,
      "suspect": 1849,
      "coronary": 1850,
      "mu": 1851,
      "##emia": 1852,
      "esophageal": 1853,
      "ble": 1854,
      "fissure": 1855,
      "pneumom": 1856,
      "##ither": 1857,
      "seiz": 1858,
      "widened": 1859,
      "heal": 1860,
      "following": 1861,
      "bowe": 1862,
      "##mental": 1863,
      "##ful": 1864,
      "might": 1865,
      "treatment": 1866,
      "pneumomediastinum": 1867,
      "bowel": 1868,
      "subs": 1869,
      "hemor": 1870,
      "##ocyt": 1871,
      "##ats": 1872,
      "recurrent": 1873,
      "symptom": 1874,
      "particularly": 1875,
      "recommendation": 1876,
      "renal": 1877,
      "swan": 1878,
      "##ogeneous": 1879,
      "obstr": 1880,
      "heter": 1881,
      "##ansion": 1882,
      "tor": 1883,
      "breast": 1884,
      "hemorrh": 1885,
      "subseg": 1886,
      "hyperinflation": 1887,
      "unfol": 1888,
      "pectoral": 1889,
      "dec": 1890,
      "dating": 1891,
      "ribs": 1892,
      "subsegmental": 1893,
      "evident": 1894,
      "torso": 1895,
      "##rahilar": 1896,
      "##acter": 1897,
      "ill": 1898,
      "aspect": 1899,
      "##ound": 1900,
      "flat": 1901,
      "extub": 1902,
      "hypot": 1903,
      "hours": 1904,
      "##uction": 1905,
      "scoliosis": 1906,
      "worris": 1907,
      "angles": 1908,
      "worrisome": 1909,
      "##ti": 1910,
      "my": 1911,
      "corresp": 1912,
      "pass": 1913,
      "inferior": 1914,
      "via": 1915,
      "ax": 1916,
      "##set": 1917,
      "##gn": 1918,
      "wheezing": 1919,
      "submitted": 1920,
      "##ancy": 1921,
      "##ict": 1922,
      "includ": 1923,
      "accomp": 1924,
      "parenchyma": 1925,
      "oste": 1926,
      "flatt": 1927,
      "accompan": 1928,
      "extrem": 1929,
      "onset": 1930,
      "type": 1931,
      "throughout": 1932,
      "char": 1933,
      "##inct": 1934,
      "##ocytosis": 1935,
      "visible": 1936,
      "syncope": 1937,
      "heterogeneous": 1938,
      "hel": 1939,
      "symptoms": 1940,
      "##air": 1941,
      "att": 1942,
      "axill": 1943,
      "obsc": 1944,
      "phone": 1945,
      "help": 1946,
      "character": 1947,
      "abs": 1948,
      "specif": 1949,
      "hemorrhage": 1950,
      "##oint": 1951,
      "gastric": 1952,
      "me": 1953,
      "##iguration": 1954,
      "configuration": 1955,
      "##ning": 1956,
      "luc": 1957,
      "indic": 1958,
      "##crib": 1959,
      "lum": 1960,
      "redist": 1961,
      "presum": 1962,
      "exertion": 1963,
      "bronchi": 1964,
      "here": 1965,
      "leukocytosis": 1966,
      "joint": 1967,
      "eti": 1968,
      "##round": 1969,
      "either": 1970,
      "##cribed": 1971,
      "trauma": 1972,
      "##rement": 1973,
      "convin": 1974,
      "requirement": 1975,
      "injury": 1976,
      "30": 1977,
      "##ronchial": 1978,
      "convincing": 1979,
      "pan": 1980,
      "##ications": 1981,
      "representing": 1982,
      "##cept": 1983,
      "diagn": 1984,
      "##iting": 1985,
      "ser": 1986,
      "es": 1987,
      "##aque": 1988,
      "##ger": 1989,
      "**": 1990,
      "liver": 1991,
      "dict": 1992,
      "wedge": 1993,
      "tachycardia": 1994,
      "preced": 1995,
      "need": 1996,
      "redistribution": 1997,
      "projection": 1998,
      "##itic": 1999,
      "##ipple": 2000,
      "preceding": 2001,
      "af": 2002,
      "refer": 2003,
      "vom": 2004,
      "sever": 2005,
      "hilum": 2006,
      "vent": 2007,
      "coil": 2008,
      "malignancy": 2009,
      "##ds": 2010,
      "smaller": 2011,
      "##king": 2012,
      "clavicle": 2013,
      "multile": 2014,
      "multilevel": 2015,
      "##ose": 2016,
      "hypotension": 2017,
      "inflated": 2018,
      "severity": 2019,
      "mit": 2020,
      "suspic": 2021,
      "##iness": 2022,
      "indist": 2023,
      "indistinct": 2024,
      "involving": 2025,
      "20": 2026,
      "tb": 2027,
      "##anz": 2028,
      "##roid": 2029,
      "##ressed": 2030,
      "mitral": 2031,
      "ganz": 2032,
      "inspiratory": 2033,
      "vomiting": 2034,
      "pulled": 2035,
      "except": 2036,
      "vats": 2037,
      "rais": 2038,
      "##opt": 2039,
      "##esoph": 2040,
      "continues": 2041,
      "thy": 2042,
      "##end": 2043,
      "diaphragms": 2044,
      "##ulation": 2045,
      "##gent": 2046,
      "##rosis": 2047,
      "##oun": 2048,
      "***": 2049,
      "positioned": 2050,
      "stro": 2051,
      "poor": 2052,
      "just": 2053,
      "etiology": 2054,
      "last": 2055,
      "pron": 2056,
      "suggested": 2057,
      "##adow": 2058,
      "):": 2059,
      "##ounced": 2060,
      "shadow": 2061,
      "fibr": 2062,
      "healed": 2063,
      "pronounced": 2064,
      "##clusion": 2065,
      "passes": 2066,
      "dictation": 2067,
      "helpful": 2068,
      "lobectomy": 2069,
      "described": 2070,
      "deformities": 2071,
      "suspected": 2072,
      "currently": 2073,
      "##ills": 2074,
      "##ded": 2075,
      "##rapy": 2076,
      "##cephal": 2077,
      "accompanied": 2078,
      "enti": 2079,
      "developed": 2080,
      "improving": 2081,
      "entire": 2082,
      "##ran": 2083,
      "courses": 2084,
      "pathology": 2085,
      "stroke": 2086,
      "bronchiect": 2087,
      "chills": 2088,
      "exag": 2089,
      "apic": 2090,
      "00": 2091,
      "next": 2092,
      "nipple": 2093,
      "mont": 2094,
      "exagger": 2095,
      "pal": 2096,
      "correl": 2097,
      "month": 2098,
      "##acer": 2099,
      "clearly": 2100,
      "newly": 2101,
      "##cin": 2102,
      "direct": 2103,
      "hyd": 2104,
      "caus": 2105,
      "pancre": 2106,
      "peripheral": 2107,
      "thoracentesis": 2108,
      "##oscop": 2109,
      "had": 2110,
      "##ziness": 2111,
      "##tern": 2112,
      "bronchiectasis": 2113,
      "##way": 2114,
      "fibrosis": 2115,
      "fields": 2116,
      "thyroid": 2117,
      "gast": 2118,
      "repair": 2119,
      "##esp": 2120,
      "bia": 2121,
      "##espread": 2122,
      "widespread": 2123,
      "biapical": 2124,
      "##eralized": 2125,
      "fat": 2126,
      "##oper": 2127,
      "bi": 2128,
      "smo": 2129,
      "confusion": 2130,
      "pleuritic": 2131,
      "vag": 2132,
      "infrahilar": 2133,
      "bo": 2134,
      "##tic": 2135,
      "ic": 2136,
      "bones": 2137,
      "ane": 2138,
      "plate": 2139,
      "det": 2140,
      "##ged": 2141,
      "##io": 2142,
      "prost": 2143,
      "proced": 2144,
      "sit": 2145,
      "lingula": 2146,
      "dilated": 2147,
      "bronchial": 2148,
      "expl": 2149,
      "disc": 2150,
      "conclusion": 2151,
      "airway": 2152,
      "fore": 2153,
      "reposition": 2154,
      "granuloma": 2155,
      "predominant": 2156,
      "##long": 2157,
      "##rom": 2158,
      "apices": 2159,
      "og": 2160,
      "##elling": 2161,
      "ventil": 2162,
      "##stem": 2163,
      "perib": 2164,
      "obli": 2165,
      "rotated": 2166,
      "spinal": 2167,
      "lucency": 2168,
      "foreign": 2169,
      "act": 2170,
      "diffusely": 2171,
      "adenopathy": 2172,
      "foc": 2173,
      "different": 2174,
      "hos": 2175,
      "icd": 2176,
      "markedly": 2177,
      "fran": 2178,
      "frank": 2179,
      "##olar": 2180,
      "diste": 2181,
      "##esophageal": 2182,
      "##cc": 2183,
      "nause": 2184,
      "exacer": 2185,
      "lesions": 2186,
      "decomp": 2187,
      "##ater": 2188,
      "addend": 2189,
      "addendum": 2190,
      "##ues": 2191,
      "nausea": 2192,
      "exacerb": 2193,
      "aty": 2194,
      "hospit": 2195,
      "16": 2196,
      "erect": 2197,
      "hospital": 2198,
      "seizure": 2199,
      "atypical": 2200,
      "##ument": 2201,
      "aerated": 2202,
      "sep": 2203,
      "distended": 2204,
      "pe": 2205,
      "13": 2206,
      "14": 2207,
      "fx": 2208,
      "lymphoma": 2209,
      "results": 2210,
      "collect": 2211,
      "longer": 2212,
      "##lav": 2213,
      "afib": 2214,
      "phys": 2215,
      "##gen": 2216,
      "hep": 2217,
      "##lavicular": 2218,
      "align": 2219,
      "rotation": 2220,
      "specifically": 2221,
      "chole": 2222,
      "hemat": 2223,
      "##oh": 2224,
      "##raw": 2225,
      "ge": 2226,
      "go": 2227,
      "diamet": 2228,
      "diameter": 2229,
      "##umer": 2230,
      "posteriorly": 2231,
      "blo": 2232,
      "humeral": 2233,
      "flattening": 2234,
      "##ber": 2235,
      "##opaque": 2236,
      "unfolded": 2237,
      "doc": 2238,
      "##ases": 2239,
      "##etermin": 2240,
      "correlate": 2241,
      "document": 2242,
      "gastro": 2243,
      "exacerbation": 2244,
      "fu": 2245,
      "ams": 2246,
      "space": 2247,
      "##gue": 2248,
      "fati": 2249,
      "radiopaque": 2250,
      "progressed": 2251,
      "05": 2252,
      "##alysis": 2253,
      "17": 2254,
      "fatigue": 2255,
      "cr": 2256,
      "reported": 2257,
      "tak": 2258,
      "fusion": 2259,
      "indetermin": 2260,
      "eff": 2261,
      "gas": 2262,
      "vague": 2263,
      "##we": 2264,
      "##rast": 2265,
      "communicated": 2266,
      "withd": 2267,
      "aside": 2268,
      "referring": 2269,
      "tr": 2270,
      "withdraw": 2271,
      "##len": 2272,
      "past": 2273,
      "peribronchial": 2274,
      "complications": 2275,
      "##asal": 2276,
      "bene": 2277,
      "##enic": 2278,
      "procedure": 2279,
      "tissues": 2280,
      "laterally": 2281,
      "local": 2282,
      "##oid": 2283,
      "series": 2284,
      "pneumoper": 2285,
      "entirely": 2286,
      "indeterminate": 2287,
      "correspond": 2288,
      "redemonstr": 2289,
      "##cinoma": 2290,
      "bibasal": 2291,
      "##de": 2292,
      "emb": 2293,
      "contrast": 2294,
      "paged": 2295,
      "##itoneal": 2296,
      "##atous": 2297,
      "ago": 2298,
      "pel": 2299,
      "remaining": 2300,
      "diagnosis": 2301,
      "relate": 2302,
      "##cyst": 2303,
      "segm": 2304,
      "biops": 2305,
      "does": 2306,
      "##atitis": 2307,
      "betwe": 2308,
      "##olumbar": 2309,
      "between": 2310,
      "pp": 2311,
      "epig": 2312,
      "thoracolumbar": 2313,
      "##emin": 2314,
      "sat": 2315,
      "pls": 2316,
      "cad": 2317,
      "##rach": 2318,
      "cholecyst": 2319,
      "##esis": 2320,
      "decompens": 2321,
      "collection": 2322,
      "blood": 2323,
      "##ock": 2324,
      "##veolar": 2325,
      "##idental": 2326,
      "pelv": 2327,
      "partial": 2328,
      "sput": 2329,
      "brach": 2330,
      "three": 2331,
      "yest": 2332,
      "opacifications": 2333,
      "beneath": 2334,
      "##erday": 2335,
      "##xy": 2336,
      "hemidiaphragms": 2337,
      "sputum": 2338,
      "08": 2339,
      "yesterday": 2340,
      "##oscopy": 2341,
      "dial": 2342,
      "resp": 2343,
      "remainder": 2344,
      "cur": 2345,
      "##ounds": 2346,
      "extremity": 2347,
      "dialysis": 2348,
      "azy": 2349,
      "azyg": 2350,
      "18": 2351,
      "exams": 2352,
      "sounds": 2353,
      "##venous": 2354,
      "alveolar": 2355,
      "oxy": 2356,
      "tension": 2357,
      "regions": 2358,
      "##ms": 2359,
      "##like": 2360,
      "cause": 2361,
      "oxygen": 2362,
      "positions": 2363,
      "incidental": 2364,
      "active": 2365,
      "marg": 2366,
      "colon": 2367,
      "sar": 2368,
      "##ised": 2369,
      "gl": 2370,
      "focus": 2371,
      "bodies": 2372,
      "four": 2373,
      "##zed": 2374,
      "##cus": 2375,
      "cleared": 2376,
      "granulom": 2377,
      "hiv": 2378,
      "ascending": 2379,
      "##cephalic": 2380,
      "full": 2381,
      "such": 2382,
      "lumbar": 2383,
      "ir": 2384,
      "sept": 2385,
      "palpit": 2386,
      "accentuated": 2387,
      "##ging": 2388,
      "biopsy": 2389,
      "unc": 2390,
      "epigastric": 2391,
      "45": 2392,
      "site": 2393,
      "hemopt": 2394,
      "oblique": 2395,
      "rightward": 2396,
      "elong": 2397,
      "##itoneum": 2398,
      "radiation": 2399,
      "distribution": 2400,
      "##coid": 2401,
      "##diaphragmatic": 2402,
      "suspicious": 2403,
      "palpitations": 2404,
      "hyperexpansion": 2405,
      "myel": 2406,
      "brachio": 2407,
      "##tn": 2408,
      "hemoptysis": 2409,
      "##uff": 2410,
      "brachiocephalic": 2411,
      "extubated": 2412,
      "dep": 2413,
      "##hed": 2414,
      "##urys": 2415,
      "marker": 2416,
      "##aint": 2417,
      "sens": 2418,
      "pneumoperitoneum": 2419,
      "war": 2420,
      "09": 2421,
      "ca": 2422,
      "prosthe": 2423,
      "bronchus": 2424,
      "found": 2425,
      "films": 2426,
      "tachypnea": 2427,
      "much": 2428,
      "overli": 2429,
      "demin": 2430,
      "meas": 2431,
      "hilus": 2432,
      "distent": 2433,
      "trach": 2434,
      "distention": 2435,
      "distress": 2436,
      "rece": 2437,
      "##iation": 2438,
      "##ground": 2439,
      "reticular": 2440,
      "questionable": 2441,
      "background": 2442,
      "htn": 2443,
      "transvenous": 2444,
      "ards": 2445,
      "##kelet": 2446,
      "lingular": 2447,
      "absence": 2448,
      "attention": 2449,
      "diz": 2450,
      "##aps": 2451,
      "pet": 2452,
      "densities": 2453,
      "##rest": 2454,
      "cholecystectomy": 2455,
      "##keletal": 2456,
      "40": 2457,
      "##here": 2458,
      "sut": 2459,
      "taken": 2460,
      "##ctomy": 2461,
      "pelvis": 2462,
      "##erc": 2463,
      "##amber": 2464,
      "hyperexpanded": 2465,
      "sepsis": 2466,
      "oper": 2467,
      "##entional": 2468,
      "margin": 2469,
      "subdiaphragmatic": 2470,
      "presumed": 2471,
      "bleed": 2472,
      "chamber": 2473,
      "arm": 2474,
      "skeletal": 2475,
      "oro": 2476,
      "##action": 2477,
      "sarcoid": 2478,
      "dizziness": 2479,
      "##asty": 2480,
      "##yph": 2481,
      "##mation": 2482,
      "masses": 2483,
      "##ician": 2484,
      "age": 2485,
      "##rence": 2486,
      "ma": 2487,
      "50": 2488,
      "coiled": 2489,
      "predominantly": 2490,
      "els": 2491,
      "##ewhere": 2492,
      "elsewhere": 2493,
      "neut": 2494,
      "desat": 2495,
      "ur": 2496,
      "##uous": 2497,
      "aneurys": 2498,
      "04": 2499,
      "stage": 2500,
      "best": 2501,
      "obscuration": 2502,
      "loops": 2503,
      "kyph": 2504,
      "indistinctness": 2505,
      "dou": 2506,
      "epis": 2507,
      "explain": 2508,
      "##icd": 2509,
      "episod": 2510,
      "##olic": 2511,
      "advised": 2512,
      "placements": 2513,
      "pos": 2514,
      "progressive": 2515,
      "myeloma": 2516,
      "##ena": 2517,
      "##ercul": 2518,
      "leftward": 2519,
      "unclear": 2520,
      "tubercul": 2521,
      "incomp": 2522,
      "pacing": 2523,
      "avr": 2524,
      "bone": 2525,
      "conve": 2526,
      "aicd": 2527,
      "19": 2528,
      "depe": 2529,
      "cv": 2530,
      "cava": 2531,
      "vena": 2532,
      "orig": 2533,
      "shap": 2534,
      "osteoph": 2535,
      "conspic": 2536,
      "sul": 2537,
      "incomplete": 2538,
      "##ping": 2539,
      "arteries": 2540,
      "##enia": 2541,
      "##opl": 2542,
      "grade": 2543,
      "gastroesophageal": 2544,
      "irre": 2545,
      "pattern": 2546,
      "wire": 2547,
      "opt": 2548,
      "irregular": 2549,
      "see": 2550,
      "proper": 2551,
      "##itus": 2552,
      "redemonstrated": 2553,
      "arrest": 2554,
      "concurrent": 2555,
      "height": 2556,
      "physician": 2557,
      "diures": 2558,
      "notably": 2559,
      "retr": 2560,
      "axillary": 2561,
      "detail": 2562,
      "cuff": 2563,
      "##ques": 2564,
      "raises": 2565,
      "operative": 2566,
      "07": 2567,
      "##quest": 2568,
      "request": 2569,
      "chem": 2570,
      "scat": 2571,
      "exaggerated": 2572,
      "admitted": 2573,
      "resolving": 2574,
      "azygos": 2575,
      "segment": 2576,
      "neutrop": 2577,
      "count": 2578,
      "fir": 2579,
      "##tent": 2580,
      "intermit": 2581,
      "##art": 2582,
      "dext": 2583,
      "obstruction": 2584,
      "initial": 2585,
      "swelling": 2586,
      "hematoma": 2587,
      "##ived": 2588,
      "definitive": 2589,
      "faint": 2590,
      "lap": 2591,
      "infl": 2592,
      "positive": 2593,
      "##atracheal": 2594,
      "##gastric": 2595,
      "diss": 2596,
      "##uc": 2597,
      "coar": 2598,
      "sized": 2599,
      "##peritoneal": 2600,
      "appropriately": 2601,
      "paratracheal": 2602,
      "withdrawn": 2603,
      "diaphragmatic": 2604,
      "##ord": 2605,
      "received": 2606,
      "orogastric": 2607,
      "##vr": 2608,
      "metastases": 2609,
      "accentuate": 2610,
      "##enth": 2611,
      "obstructive": 2612,
      "scattered": 2613,
      "characterized": 2614,
      "shock": 2615,
      "intermittent": 2616,
      "##haps": 2617,
      "##nel": 2618,
      "perhaps": 2619,
      "clavicular": 2620,
      "iv": 2621,
      "##most": 2622,
      "##ernal": 2623,
      "art": 2624,
      "situ": 2625,
      "axilla": 2626,
      "bl": 2627,
      "first": 2628,
      "##coliosis": 2629,
      "inflam": 2630,
      "white": 2631,
      "conventional": 2632,
      "incompletely": 2633,
      "23": 2634,
      "osteophy": 2635,
      "mor": 2636,
      "##urg": 2637,
      "22": 2638,
      "curv": 2639,
      "examinations": 2640,
      "21": 2641,
      "##ioc": 2642,
      "carinal": 2643,
      "weight": 2644,
      "##othe": 2645,
      "being": 2646,
      "tracheal": 2647,
      "included": 2648,
      "decompensation": 2649,
      "suggestion": 2650,
      "byp": 2651,
      "##ones": 2652,
      "intraperitoneal": 2653,
      "system": 2654,
      "differential": 2655,
      "##neumothorax": 2656,
      "bypass": 2657,
      "),": 2658,
      "##ors": 2659,
      "crit": 2660,
      "optimal": 2661,
      "terminate": 2662,
      "##rd": 2663,
      "rh": 2664,
      "artif": 2665,
      "deviation": 2666,
      "ventilation": 2667,
      "nons": 2668,
      "conspicuous": 2669,
      "bey": 2670,
      "about": 2671,
      "06": 2672,
      "beyond": 2673,
      "25": 2674,
      "24": 2675,
      "septic": 2676,
      "##sternal": 2677,
      "bronchogra": 2678,
      "##roph": 2679,
      "obscuring": 2680,
      "rll": 2681,
      "transf": 2682,
      "sinuses": 2683,
      "appearing": 2684,
      "03": 2685,
      "##remia": 2686,
      "##bo": 2687,
      "##ribut": 2688,
      "##illation": 2689,
      "esrd": 2690,
      "artifact": 2691,
      "glen": 2692,
      "critical": 2693,
      "##cement": 2694,
      "thir": 2695,
      "ant": 2696,
      "##kin": 2697,
      "eventr": 2698,
      "diuresis": 2699,
      "ste": 2700,
      "##otherapy": 2701,
      "node": 2702,
      "##pite": 2703,
      "pancreatitis": 2704,
      "despite": 2705,
      "while": 2706,
      "occ": 2707,
      "##ash": 2708,
      "##pec": 2709,
      "##cum": 2710,
      "pla": 2711,
      "remote": 2712,
      "fibrillation": 2713,
      "55": 2714,
      "espec": 2715,
      "fullness": 2716,
      "inlet": 2717,
      "especially": 2718,
      "off": 2719,
      "ending": 2720,
      "noting": 2721,
      "hemo": 2722,
      "ul": 2723,
      "##yl": 2724,
      "tem": 2725,
      "##sure": 2726,
      "third": 2727,
      "nur": 2728,
      "stab": 2729,
      "radiology": 2730,
      "hemothorax": 2731,
      "shar": 2732,
      "eventration": 2733,
      "##ired": 2734,
      "##cific": 2735,
      "sev": 2736,
      "##aise": 2737,
      "ensure": 2738,
      "malaise": 2739,
      "extubation": 2740,
      "nonspe": 2741,
      "##allow": 2742,
      "reflective": 2743,
      "coursing": 2744,
      "acrom": 2745,
      "plaques": 2746,
      "nonspecific": 2747,
      "##oon": 2748,
      "ce": 2749,
      "located": 2750,
      "##lung": 2751,
      "obvious": 2752,
      "elongation": 2753,
      "sharp": 2754,
      "exter": 2755,
      "chemotherapy": 2756,
      "corresponds": 2757,
      "lies": 2758,
      "##chi": 2759,
      "bronchograms": 2760,
      "##ather": 2761,
      "sulcus": 2762,
      "embol": 2763,
      "congested": 2764,
      "months": 2765,
      "external": 2766,
      "term": 2767,
      "##___": 2768,
      "midlung": 2769,
      "rather": 2770,
      "graft": 2771,
      "##onic": 2772,
      "sixt": 2773,
      "sixth": 2774,
      "lll": 2775,
      "zones": 2776,
      "##yopathy": 2777,
      "advancement": 2778,
      "cardiomyopathy": 2779,
      "demonstrating": 2780,
      "she": 2781,
      "##ju": 2782,
      "lobar": 2783,
      "hydrop": 2784,
      "pneumonitis": 2785,
      "tender": 2786,
      "##actory": 2787,
      "35": 2788,
      "band": 2789,
      "depend": 2790,
      "##pid": 2791,
      "where": 2792,
      "##fth": 2793,
      "water": 2794,
      "##rani": 2795,
      "##jor": 2796,
      "respect": 2797,
      "aneurysm": 2798,
      "almost": 2799,
      "work": 2800,
      "doe": 2801,
      "tuberculosis": 2802,
      "shaped": 2803,
      "##xation": 2804,
      "tips": 2805,
      "major": 2806,
      "##itation": 2807,
      "02": 2808,
      "generalized": 2809,
      "##bc": 2810,
      "based": 2811,
      "even": 2812,
      "##ision": 2813,
      "origin": 2814,
      "rays": 2815,
      "overlies": 2816,
      "##mia": 2817,
      "##etr": 2818,
      "dissection": 2819,
      "down": 2820,
      "measuring": 2821,
      "urgent": 2822,
      "clearing": 2823,
      "fifth": 2824,
      "dextros": 2825,
      "mot": 2826,
      "nodes": 2827,
      "therapy": 2828,
      "##ervation": 2829,
      "01": 2830,
      "##ache": 2831,
      "massive": 2832,
      "##cemia": 2833,
      "priors": 2834,
      "dextroscoliosis": 2835,
      "hydropneumothorax": 2836,
      "ground": 2837,
      "stri": 2838,
      "dm": 2839,
      "aml": 2840,
      "cardiophrenic": 2841,
      "mvc": 2842,
      "antib": 2843,
      "rul": 2844,
      "effort": 2845,
      "pmh": 2846,
      "carcinoma": 2847,
      "good": 2848,
      "presumably": 2849,
      "rhon": 2850,
      "diab": 2851,
      "glenoh": 2852,
      "platelike": 2853,
      "access": 2854,
      "glenohumeral": 2855,
      "##sed": 2856,
      "##min": 2857,
      "fund": 2858,
      "observation": 2859,
      "aligned": 2860,
      "ball": 2861,
      "doub": 2862,
      "obscures": 2863,
      "antibi": 2864,
      "severely": 2865,
      "##dialysis": 2866,
      "hemodialysis": 2867,
      "antibiotic": 2868,
      "tre": 2869,
      "structure": 2870,
      "demineralized": 2871,
      "hypoxemia": 2872,
      "os": 2873,
      "##yst": 2874,
      "whether": 2875,
      "wbc": 2876,
      "toward": 2877,
      "dilat": 2878,
      "balloon": 2879,
      "##ioclavicular": 2880,
      "##equ": 2881,
      "acromioclavicular": 2882,
      "tenderness": 2883,
      "superiorly": 2884,
      "##allic": 2885,
      "metallic": 2886,
      "abscess": 2887,
      "dilatation": 2888,
      "additionally": 2889,
      "##idne": 2890,
      "expansion": 2891,
      "ppd": 2892,
      "seventh": 2893,
      "dependent": 2894,
      "kidne": 2895,
      "parts": 2896,
      "fibrotic": 2897,
      "doubt": 2898,
      "##ogenic": 2899,
      "glass": 2900,
      "##osure": 2901,
      "close": 2902,
      "contusion": 2903,
      "general": 2904,
      "##ient": 2905,
      "humer": 2906,
      "##lycemia": 2907,
      "47": 2908,
      "veins": 2909,
      "repositioned": 2910,
      "hr": 2911,
      "##onding": 2912,
      "hypertroph": 2913,
      "fixation": 2914,
      "account": 2915,
      "desaturation": 2916,
      "resulting": 2917,
      "##ales": 2918,
      "##ily": 2919,
      "leg": 2920,
      "53": 2921,
      "approach": 2922,
      "pleura": 2923,
      "osteophytes": 2924,
      "pleurx": 2925,
      "kidney": 2926,
      "54": 2927,
      "##isf": 2928,
      "appeared": 2929,
      "drains": 2930,
      "infar": 2931,
      "satisf": 2932,
      "immun": 2933,
      "##arrow": 2934,
      "sign": 2935,
      "sensitive": 2936,
      "fill": 2937,
      "humerus": 2938,
      "##oing": 2939,
      "##ons": 2940,
      "pneumo": 2941,
      "##ism": 2942,
      "fac": 2943,
      "##med": 2944,
      "smoking": 2945,
      "28": 2946,
      "warrant": 2947,
      "replaced": 2948,
      "57": 2949,
      "largely": 2950,
      ").": 2951,
      "##ematous": 2952,
      "bronchoscopy": 2953,
      "48": 2954,
      "respective": 2955,
      "##iod": 2956,
      "##rod": 2957,
      "raising": 2958,
      "cephal": 2959,
      "arterial": 2960,
      "corresponding": 2961,
      "satisfactory": 2962,
      "shallow": 2963,
      "sutures": 2964,
      "traumatic": 2965,
      "29": 2966,
      "bleeding": 2967,
      "##bly": 2968,
      "extreme": 2969,
      "requested": 2970,
      "gener": 2971,
      "..": 2972,
      "needs": 2973,
      "pancreatic": 2974,
      "rhonchi": 2975,
      "26": 2976,
      "medially": 2977,
      "tight": 2978,
      "symmetr": 2979,
      "convex": 2980,
      "56": 2981,
      "amiod": 2982,
      "unfolding": 2983,
      "##ibr": 2984,
      "##arone": 2985,
      "##ind": 2986,
      "overinf": 2987,
      "synd": 2988,
      "shu": 2989,
      "##olateral": 2990,
      "38": 2991,
      "seizures": 2992,
      "episode": 2993,
      "fundus": 2994,
      "disl": 2995,
      "44": 2996,
      "59": 2997,
      "##coh": 2998,
      "generator": 2999,
      "41": 3000,
      "amiodarone": 3001,
      "alcoh": 3002,
      "defibr": 3003,
      "arth": 3004,
      "compare": 3005,
      "##illator": 3006,
      "46": 3007,
      "emphysematous": 3008,
      "shunt": 3009,
      "shadows": 3010,
      "techn": 3011,
      "defibrillator": 3012,
      "##rome": 3013,
      "baseline": 3014,
      "##surg": 3015,
      "hypertrophic": 3016,
      "52": 3017,
      "eight": 3018,
      "var": 3019,
      "tightness": 3020,
      "42": 3021,
      "then": 3022,
      "postsurg": 3023,
      "joints": 3024,
      "postsurgical": 3025,
      "hc": 3026,
      "sarcoidosis": 3027,
      "27": 3028,
      "##ump": 3029,
      "indicated": 3030,
      "37": 3031,
      "##position": 3032,
      "treated": 3033,
      "49": 3034,
      "##verse": 3035,
      "alignment": 3036,
      "32": 3037,
      "atte": 3038,
      "syndrome": 3039,
      "##ission": 3040,
      "lord": 3041,
      "infusion": 3042,
      "smoker": 3043,
      "during": 3044,
      "poorly": 3045,
      "repositioning": 3046,
      "31": 3047,
      "##etes": 3048,
      "preoperative": 3049,
      "diabetes": 3050,
      "ek": 3051,
      "heav": 3052,
      "airways": 3053,
      "tum": 3054,
      "sa": 3055,
      "chan": 3056,
      "prosthetic": 3057,
      "36": 3058,
      "scap": 3059,
      "appreciably": 3060,
      "##medi": 3061,
      "pad": 3062,
      "empy": 3063,
      "light": 3064,
      "they": 3065,
      "headache": 3066,
      "ekg": 3067,
      "##bri": 3068,
      "channel": 3069,
      "transfer": 3070,
      "lordotic": 3071,
      "39": 3072,
      "coarse": 3073,
      "chin": 3074,
      "causing": 3075,
      "##brile": 3076,
      "few": 3077,
      "presented": 3078,
      "lumen": 3079,
      "empyema": 3080,
      "ris": 3081,
      "##enetr": 3082,
      "##entricular": 3083,
      "mater": 3084,
      "kyphosis": 3085,
      "recur": 3086,
      "entered": 3087,
      "suspicion": 3088,
      ".:": 3089,
      "43": 3090,
      "hd": 3091,
      "material": 3092,
      "night": 3093,
      "tumor": 3094,
      "her": 3095,
      "collapsed": 3096,
      "##agectomy": 3097,
      "##kn": 3098,
      "acqu": 3099,
      "sour": 3100,
      "limitations": 3101,
      "ogt": 3102,
      "biv": 3103,
      "gi": 3104,
      "notable": 3105,
      "34": 3106,
      "##lant": 3107,
      "##iring": 3108,
      "refe": 3109,
      "etoh": 3110,
      "esophagectomy": 3111,
      "##pleural": 3112,
      "suprac": 3113,
      "##ize": 3114,
      "silhouetting": 3115,
      "markers": 3116,
      "##ropl": 3117,
      "periphery": 3118,
      "preop": 3119,
      "perfor": 3120,
      "##den": 3121,
      "##clerosis": 3122,
      "filled": 3123,
      "towards": 3124,
      "asc": 3125,
      "nearly": 3126,
      "33": 3127,
      "##otal": 3128,
      "bronchitis": 3129,
      "##ep": 3130,
      "unkn": 3131,
      "requiring": 3132,
      "58": 3133,
      "##iter": 3134,
      "stents": 3135,
      "skin": 3136,
      "chemo": 3137,
      "##ses": 3138,
      "osh": 3139,
      "unknown": 3140,
      "indicate": 3141,
      "implant": 3142,
      "transverse": 3143,
      "hepatic": 3144,
      "supraclavicular": 3145,
      "pump": 3146,
      "pod": 3147,
      "sten": 3148,
      "source": 3149,
      "51": 3150,
      "radiographically": 3151,
      "asymmetry": 3152,
      "##acted": 3153,
      "fid": 3154,
      "their": 3155,
      "cuffing": 3156,
      "cage": 3157,
      "##ential": 3158,
      "stem": 3159,
      "reference": 3160,
      "granulomas": 3161,
      "cross": 3162,
      "fiduc": 3163,
      "complicated": 3164,
      "secre": 3165,
      "##arditis": 3166,
      "bacte": 3167,
      "fiducial": 3168,
      "##ps": 3169,
      "call": 3170,
      "scanning": 3171,
      "curvature": 3172,
      "fourth": 3173,
      "mi": 3174,
      "morning": 3175,
      "rapid": 3176,
      "##ocentesis": 3177,
      "mr": 3178,
      "thoracotomy": 3179,
      "overlap": 3180,
      "bacteremia": 3181,
      "##certain": 3182,
      "ru": 3183,
      "stenosis": 3184,
      "rea": 3185,
      "##ergent": 3186,
      "##fort": 3187,
      "##pulm": 3188,
      "adequ": 3189,
      "flattened": 3190,
      "loo": 3191,
      "prim": 3192,
      "use": 3193,
      "sclerotic": 3194,
      "altern": 3195,
      "##iber": 3196,
      "underg": 3197,
      "caliber": 3198,
      "caused": 3199,
      "secretion": 3200,
      "##stolic": 3201,
      "##omfort": 3202,
      "neutropenia": 3203,
      "##osup": 3204,
      "hypoxic": 3205,
      "cardiopulm": 3206,
      "catheters": 3207,
      "##ute": 3208,
      "indicative": 3209,
      "febrile": 3210,
      "##uation": 3211,
      "mainstem": 3212,
      "warranted": 3213,
      "plu": 3214,
      "immunosup": 3215,
      "##itary": 3216,
      "subopt": 3217,
      "##mission": 3218,
      "suboptimal": 3219,
      "loop": 3220,
      "limiting": 3221,
      "discomfort": 3222,
      "##ished": 3223,
      "apparently": 3224,
      "required": 3225,
      "granulomatous": 3226,
      "##ks": 3227,
      "chain": 3228,
      "displacement": 3229,
      "##ites": 3230,
      "evol": 3231,
      "subsequently": 3232,
      "communication": 3233,
      "rest": 3234,
      "##arcinoma": 3235,
      "includes": 3236,
      "##uced": 3237,
      "immedi": 3238,
      "years": 3239,
      "hab": 3240,
      "##cp": 3241,
      "uncertain": 3242,
      "alternative": 3243,
      "overinflation": 3244,
      "habitus": 3245,
      "disloc": 3246,
      "secretions": 3247,
      "deline": 3248,
      "admission": 3249,
      "characterization": 3250,
      "##roplasty": 3251,
      "breathing": 3252,
      "rales": 3253,
      "##head": 3254,
      "brain": 3255,
      "##uod": 3256,
      "##vening": 3257,
      "hip": 3258,
      "dx": 3259,
      "tox": 3260,
      "acquired": 3261,
      "analysis": 3262,
      "cyst": 3263,
      "##junction": 3264,
      "narrow": 3265,
      "exposure": 3266,
      "provider": 3267,
      "conjunction": 3268,
      "immunosupp": 3269,
      "ppm": 3270,
      "respectively": 3271,
      "potential": 3272,
      "reac": 3273,
      "anteriorly": 3274,
      "dimin": 3275,
      "--": 3276,
      "##che": 3277,
      "accum": 3278,
      "##ributed": 3279,
      "ong": 3280,
      "wind": 3281,
      "param": 3282,
      "malposition": 3283,
      "retraction": 3284,
      "plug": 3285,
      "ongoing": 3286,
      "window": 3287,
      "plain": 3288,
      "##thor": 3289,
      "##artment": 3290,
      "##eats": 3291,
      "bul": 3292,
      "##odesis": 3293,
      "necess": 3294,
      "medical": 3295,
      "radiod": 3296,
      "department": 3297,
      "orth": 3298,
      "sud": 3299,
      "yo": 3300,
      "##lex": 3301,
      "consolidative": 3302,
      "bull": 3303,
      "scre": 3304,
      "pleurodesis": 3305,
      "lighthead": 3306,
      "##izing": 3307,
      "include": 3308,
      "##oplasty": 3309,
      "sheath": 3310,
      "sudden": 3311,
      "##ca": 3312,
      "##umerous": 3313,
      "eighth": 3314,
      "interim": 3315,
      "sweats": 3316,
      "numerous": 3317,
      "specific": 3318,
      "##welling": 3319,
      "pneumonic": 3320,
      "mel": 3321,
      "bec": 3322,
      "haziness": 3323,
      "insertion": 3324,
      "##less": 3325,
      "plethor": 3326,
      "indwelling": 3327,
      "toxic": 3328,
      "confirmed": 3329,
      "ascites": 3330,
      "aden": 3331,
      "discre": 3332,
      "total": 3333,
      "temp": 3334,
      "lightheaded": 3335,
      "melan": 3336,
      "chronicity": 3337,
      "stably": 3338,
      "##aining": 3339,
      "##lt": 3340,
      "plethora": 3341,
      "melanoma": 3342,
      "mech": 3343,
      "num": 3344,
      "pyl": 3345,
      "radiography": 3346,
      "thoracocentesis": 3347,
      "pylor": 3348,
      "oc": 3349,
      "communications": 3350,
      "cvl": 3351,
      "ns": 3352,
      "##ped": 3353,
      "ile": 3354,
      "nor": 3355,
      "suprahilar": 3356,
      "upon": 3357,
      "mvr": 3358,
      "done": 3359,
      "##vement": 3360,
      "##lectomy": 3361,
      "dislocation": 3362,
      "levels": 3363,
      "supervening": 3364,
      "postop": 3365,
      "diminished": 3366,
      "osteop": 3367,
      "##best": 3368,
      "asbest": 3369,
      "##quiv": 3370,
      "tracheob": 3371,
      "generally": 3372,
      "##quivocal": 3373,
      "conte": 3374,
      "inflammation": 3375,
      "discrete": 3376,
      "duod": 3377,
      "embolism": 3378,
      "alternatively": 3379,
      "context": 3380,
      "ck": 3381,
      "stability": 3382,
      "leth": 3383,
      "##ify": 3384,
      "adequate": 3385,
      "##luc": 3386,
      "##ensity": 3387,
      "lightheadedness": 3388,
      "##chf": 3389,
      "##vt": 3390,
      "##acic": 3391,
      "retrosternal": 3392,
      "cephalization": 3393,
      "hole": 3394,
      "##matory": 3395,
      "##pulmonic": 3396,
      "reaccum": 3397,
      "distension": 3398,
      "letharg": 3399,
      "extremely": 3400,
      "mere": 3401,
      "subpulmonic": 3402,
      "asymmetrical": 3403,
      "merely": 3404,
      "nurse": 3405,
      "mechan": 3406,
      "motor": 3407,
      "##aseous": 3408,
      "technical": 3409,
      "gaseous": 3410,
      "##inflated": 3411,
      "malignant": 3412,
      "##ranial": 3413,
      "##lim": 3414,
      "##penetr": 3415,
      "metastasis": 3416,
      "biventricular": 3417,
      "radiating": 3418,
      "epicardial": 3419,
      "toxicity": 3420,
      "hyperg": 3421,
      "neo": 3422,
      "quite": 3423,
      "paramediastinal": 3424,
      "difficulty": 3425,
      "intrac": 3426,
      "underpenetr": 3427,
      "mri": 3428,
      "vir": 3429,
      "delineated": 3430,
      "dement": 3431,
      "will": 3432,
      "intrap": 3433,
      "pectus": 3434,
      "fo": 3435,
      "leak": 3436,
      "mostly": 3437,
      "accentuates": 3438,
      "basis": 3439,
      "predominance": 3440,
      "##oned": 3441,
      "ckd": 3442,
      "dementia": 3443,
      "mak": 3444,
      "##ank": 3445,
      "normally": 3446,
      "ped": 3447,
      "##ace": 3448,
      "cen": 3449,
      "remarkable": 3450,
      "inflammatory": 3451,
      "lethargy": 3452,
      "hyperglycemia": 3453,
      "centered": 3454,
      "exist": 3455,
      "hypo": 3456,
      "mechanical": 3457,
      "therefore": 3458,
      "poly": 3459,
      "clavicles": 3460,
      "sah": 3461,
      "orthop": 3462,
      "event": 3463,
      "##ific": 3464,
      "##board": 3465,
      "cardiogenic": 3466,
      "transferred": 3467,
      "anemia": 3468,
      "malpositioned": 3469,
      "##othoracic": 3470,
      "perforation": 3471,
      "adenoc": 3472,
      "##rectomy": 3473,
      "attempt": 3474,
      "dash": 3475,
      "##la": 3476,
      "what": 3477,
      "borders": 3478,
      "cavitary": 3479,
      "sternum": 3480,
      "##ologic": 3481,
      "valv": 3482,
      "open": 3483,
      "decort": 3484,
      "around": 3485,
      "dashboard": 3486,
      "inferiorly": 3487,
      "alread": 3488,
      "already": 3489,
      "ov": 3490,
      "wedging": 3491,
      "##urred": 3492,
      "##hea": 3493,
      "flank": 3494,
      "round": 3495,
      "configurational": 3496,
      "##adin": 3497,
      "##use": 3498,
      "coum": 3499,
      "##rid": 3500,
      "coumadin": 3501,
      "hydro": 3502,
      "##rhea": 3503,
      "##mt": 3504,
      "##urring": 3505,
      "sick": 3506,
      "##anding": 3507,
      "indicating": 3508,
      "dry": 3509,
      "deep": 3510,
      "tract": 3511,
      "stron": 3512,
      "neur": 3513,
      "showed": 3514,
      "typical": 3515,
      "ische": 3516,
      "##chond": 3517,
      "##enum": 3518,
      "seque": 3519,
      "nond": 3520,
      "##hicle": 3521,
      "incidentally": 3522,
      "home": 3523,
      "##iary": 3524,
      "interp": 3525,
      "encephal": 3526,
      "vehicle": 3527,
      "standing": 3528,
      "hf": 3529,
      "sclerosis": 3530,
      "##dh": 3531,
      "accumulation": 3532,
      "##ray": 3533,
      "neutropenic": 3534,
      "recurrence": 3535,
      "portions": 3536,
      "##sing": 3537,
      "followed": 3538,
      "##ack": 3539,
      "cond": 3540,
      "##inary": 3541,
      "shoulders": 3542,
      "complication": 3543,
      "##other": 3544,
      "asbestos": 3545,
      "elect": 3546,
      "stim": 3547,
      "confluence": 3548,
      "strong": 3549,
      "causes": 3550,
      "another": 3551,
      "wheeze": 3552,
      "function": 3553,
      "prosthesis": 3554,
      "nin": 3555,
      "##mic": 3556,
      "##ulator": 3557,
      "hepatitis": 3558,
      "fem": 3559,
      "difference": 3560,
      "er": 3561,
      "atelectases": 3562,
      "whose": 3563,
      "pneumonectomy": 3564,
      "positional": 3565,
      "##ined": 3566,
      "neph": 3567,
      "##ration": 3568,
      "##ounting": 3569,
      "##rad": 3570,
      "accounting": 3571,
      "clam": 3572,
      "##mon": 3573,
      "felt": 3574,
      "sequela": 3575,
      "##ium": 3576,
      "decortication": 3577,
      "hemidiaphragmatic": 3578,
      "infarct": 3579,
      "seal": 3580,
      "reduced": 3581,
      "suture": 3582,
      "chol": 3583,
      "continue": 3584,
      "##urn": 3585,
      "formation": 3586,
      "##atosis": 3587,
      "circum": 3588,
      "ninth": 3589,
      "##isp": 3590,
      "diar": 3591,
      "##seal": 3592,
      "retracted": 3593,
      "##ka": 3594,
      "##erved": 3595,
      "##imeter": 3596,
      "accentuating": 3597,
      "cva": 3598,
      "peg": 3599,
      "##entimeter": 3600,
      "diagnosed": 3601,
      "waterseal": 3602,
      "diarrhea": 3603,
      "throm": 3604,
      "significance": 3605,
      "fissural": 3606,
      "workup": 3607,
      "rising": 3608,
      "xray": 3609,
      "goiter": 3610,
      "wide": 3611,
      "immediately": 3612,
      "hypoinflated": 3613,
      "stimulator": 3614,
      "iab": 3615,
      "##ice": 3616,
      "kne": 3617,
      "##icul": 3618,
      "abuse": 3619,
      "lv": 3620,
      "##usc": 3621,
      "iabp": 3622,
      "definitely": 3623,
      "##ritis": 3624,
      "neg": 3625,
      "##erted": 3626,
      "##eralization": 3627,
      "radiodensity": 3628,
      "uri": 3629,
      "partly": 3630,
      "point": 3631,
      "costo": 3632,
      "prostate": 3633,
      "adenocarcinoma": 3634,
      "##ocarditis": 3635,
      "thro": 3636,
      "reaccumulation": 3637,
      "encephalopathy": 3638,
      "dvt": 3639,
      "##existing": 3640,
      "sbo": 3641,
      "##rium": 3642,
      "thought": 3643,
      "coils": 3644,
      "exc": 3645,
      "emboli": 3646,
      "respons": 3647,
      "undergone": 3648,
      "documented": 3649,
      "detection": 3650,
      "vessel": 3651,
      "une": 3652,
      "##ret": 3653,
      "spont": 3654,
      "ef": 3655,
      "narrowing": 3656,
      "iph": 3657,
      "poster": 3658,
      "nec": 3659,
      "primary": 3660,
      "inserted": 3661,
      "demineralization": 3662,
      "lapar": 3663,
      "knee": 3664,
      "scapula": 3665,
      "necessary": 3666,
      "fav": 3667,
      "biliary": 3668,
      "##ias": 3669,
      "healing": 3670,
      "juxt": 3671,
      "##arily": 3672,
      "##ident": 3673,
      "chronically": 3674,
      "sickle": 3675,
      "decreasing": 3676,
      "far": 3677,
      "introd": 3678,
      "localized": 3679,
      "throat": 3680,
      "antibiotics": 3681,
      "##emic": 3682,
      "distort": 3683,
      "tav": 3684,
      "substernal": 3685,
      "cer": 3686,
      "tri": 3687,
      "##nge": 3688,
      "extra": 3689,
      "sdh": 3690,
      "##urgent": 3691,
      "##raum": 3692,
      "nonurgent": 3693,
      "equivocal": 3694,
      "patients": 3695,
      "thromb": 3696,
      "hcv": 3697,
      "cholang": 3698,
      "definition": 3699,
      "eg": 3700,
      "##asm": 3701,
      "cardiothoracic": 3702,
      "duodenum": 3703,
      "##yed": 3704,
      "subpleural": 3705,
      "esophagogastric": 3706,
      "each": 3707,
      "lul": 3708,
      "##ying": 3709,
      "ich": 3710,
      "##tained": 3711,
      "because": 3712,
      "##standing": 3713,
      "coughing": 3714,
      "endocarditis": 3715,
      "ms": 3716,
      "enlarging": 3717,
      "calcific": 3718,
      "surrou": 3719,
      "tavr": 3720,
      "subject": 3721,
      "##man": 3722,
      "##ml": 3723,
      "limitation": 3724,
      "recommendations": 3725,
      "consideration": 3726,
      "##isplaced": 3727,
      "splen": 3728,
      "six": 3729,
      "separ": 3730,
      "##ee": 3731,
      "latent": 3732,
      "comple": 3733,
      "occult": 3734,
      "longstanding": 3735,
      "decompensated": 3736,
      "irregularity": 3737,
      "alcoholic": 3738,
      "icu": 3739,
      "dish": 3740,
      "plugging": 3741,
      "edge": 3742,
      "##ually": 3743,
      "evolving": 3744,
      "##cub": 3745,
      "neopl": 3746,
      "raise": 3747,
      "conveyed": 3748,
      "juxta": 3749,
      "stripe": 3750,
      "rvr": 3751,
      "decub": 3752,
      "multi": 3753,
      "determ": 3754,
      "mic": 3755,
      "form": 3756,
      "##arding": 3757,
      "traver": 3758,
      "muc": 3759,
      "care": 3760,
      "vp": 3761,
      "##iding": 3762,
      "ivc": 3763,
      "##ulitis": 3764,
      "common": 3765,
      "mast": 3766,
      "orient": 3767,
      "##enter": 3768,
      "disorder": 3769,
      "##ner": 3770,
      "intracranial": 3771,
      "thus": 3772,
      "relates": 3773,
      "exception": 3774,
      "scout": 3775,
      "##ides": 3776,
      "subjective": 3777,
      "team": 3778,
      "##astic": 3779,
      "saturation": 3780,
      "mig": 3781,
      "sharply": 3782,
      "##enz": 3783,
      "facial": 3784,
      "ro": 3785,
      "##lf": 3786,
      "involvement": 3787,
      "elongated": 3788,
      "ulcer": 3789,
      "##rady": 3790,
      "continuous": 3791,
      "telephoned": 3792,
      "viral": 3793,
      "look": 3794,
      "flex": 3795,
      "fissures": 3796,
      "condition": 3797,
      "nst": 3798,
      "overlie": 3799,
      "intrapulmonary": 3800,
      "nstemi": 3801,
      "name": 3802,
      "persistently": 3803,
      "episodes": 3804,
      "alcohol": 3805,
      "##icus": 3806,
      "hypog": 3807,
      "reassess": 3808,
      "colectomy": 3809,
      "##oscopic": 3810,
      "kin": 3811,
      "inst": 3812,
      "thoracostomy": 3813,
      "nondisplaced": 3814,
      "annul": 3815,
      "coll": 3816,
      "##tras": 3817,
      "diastolic": 3818,
      "demonstration": 3819,
      "ultras": 3820,
      "overlapping": 3821,
      "streaks": 3822,
      "crani": 3823,
      "ann": 3824,
      "spontaneous": 3825,
      "decubitus": 3826,
      "ultrasound": 3827,
      "coars": 3828,
      "ele": 3829,
      "ech": 3830,
      "vertebra": 3831,
      "negative": 3832,
      "posterolateral": 3833,
      "wound": 3834,
      "hydr": 3835,
      "##car": 3836,
      "##ocardi": 3837,
      "##luenz": 3838,
      "spic": 3839,
      "hand": 3840,
      "dysph": 3841,
      "tracheobronch": 3842,
      "##luenza": 3843,
      "##agia": 3844,
      "indicates": 3845,
      "##chondral": 3846,
      "element": 3847,
      "hyperluc": 3848,
      "regarding": 3849,
      "brady": 3850,
      "nature": 3851,
      "##ci": 3852,
      "nondi": 3853,
      "feel": 3854,
      "presy": 3855,
      "his": 3856,
      "kee": 3857,
      "abut": 3858,
      "cll": 3859,
      "must": 3860,
      "keeping": 3861,
      "##par": 3862,
      "infarction": 3863,
      "spiculated": 3864,
      "##odular": 3865,
      "five": 3866,
      "production": 3867,
      "withdrawal": 3868,
      "##omatosis": 3869,
      "details": 3870,
      "mastectomy": 3871,
      "presyncop": 3872,
      "##ital": 3873,
      "fact": 3874,
      "occu": 3875,
      "responsible": 3876,
      "##inear": 3877,
      "##vity": 3878,
      "##traum": 3879,
      "order": 3880,
      "processes": 3881,
      "surrounding": 3882,
      "cap": 3883,
      "section": 3884,
      "##ake": 3885,
      "vert": 3886,
      "email": 3887,
      "explained": 3888,
      "mucous": 3889,
      "##ilinear": 3890,
      "influenza": 3891,
      "persisting": 3892,
      "reduction": 3893,
      "curvilinear": 3894,
      "##aryn": 3895,
      "poin": 3896,
      "mets": 3897,
      "confirmation": 3898,
      "ec": 3899,
      "unus": 3900,
      "hypoxemic": 3901,
      "lip": 3902,
      "falls": 3903,
      "##itivity": 3904,
      "transesophageal": 3905,
      "ect": 3906,
      "##charge": 3907,
      "combined": 3908,
      "numb": 3909,
      "interpret": 3910,
      "##obular": 3911,
      "##arynx": 3912,
      "tracking": 3913,
      "blunt": 3914,
      "##atum": 3915,
      "unable": 3916,
      "effect": 3917,
      "fragm": 3918,
      "##ust": 3919,
      "dysphagia": 3920,
      "highly": 3921,
      "fragment": 3922,
      "filter": 3923,
      "accompanying": 3924,
      "needed": 3925,
      "rml": 3926,
      "syncopal": 3927,
      "return": 3928,
      "##ologist": 3929,
      "##stended": 3930,
      "bore": 3931,
      "##odg": 3932,
      "exertional": 3933,
      "never": 3934,
      "infiltrative": 3935,
      "nonem": 3936,
      "ischemic": 3937,
      "annular": 3938,
      "bed": 3939,
      "showing": 3940,
      "annulus": 3941,
      "nonemergent": 3942,
      "lev": 3943,
      "infiltration": 3944,
      "visualization": 3945,
      "##enteric": 3946,
      "manif": 3947,
      "motion": 3948,
      "heavy": 3949,
      "numbness": 3950,
      "mv": 3951,
      "##onia": 3952,
      "fractured": 3953,
      "characterize": 3954,
      "underpenetration": 3955,
      "certain": 3956,
      "manifest": 3957,
      "emergent": 3958,
      "redemonstration": 3959,
      "kyphotic": 3960,
      "containing": 3961,
      "determine": 3962,
      "ventilated": 3963,
      "##fu": 3964,
      "outp": 3965,
      "late": 3966,
      "pacs": 3967,
      "accident": 3968,
      "hydrothorax": 3969,
      "dchf": 3970,
      "osteopenia": 3971,
      "lvad": 3972,
      "hal": 3973,
      "deli": 3974,
      "surface": 3975,
      "hiatus": 3976,
      "double": 3977,
      "hcap": 3978,
      "hld": 3979,
      "##ontin": 3980,
      "##ish": 3981,
      "cavity": 3982,
      "physical": 3983,
      "coexisting": 3984,
      "lesser": 3985,
      "nondistended": 3986,
      "collision": 3987,
      "##roh": 3988,
      "cardio": 3989,
      "##adder": 3990,
      "injuries": 3991,
      "later": 3992,
      "heads": 3993,
      "considering": 3994,
      "md": 3995,
      "##ug": 3996,
      "comment": 3997,
      "warning": 3998,
      "excav": 3999,
      "##ault": 4000,
      "assault": 4001,
      "costochondral": 4002,
      "necr": 4003,
      "react": 4004,
      "hypoglycemia": 4005,
      "excavatum": 4006,
      "diver": 4007,
      "desired": 4008,
      "plaque": 4009,
      "shifted": 4010,
      "atten": 4011,
      "stemi": 4012,
      "lack": 4013,
      "##the": 4014,
      "evac": 4015,
      "##stomy": 4016,
      "##old": 4017,
      "interpretation": 4018,
      "tun": 4019,
      "upd": 4020,
      "splenic": 4021,
      "projected": 4022,
      "immunosuppression": 4023,
      "dilation": 4024,
      "ruq": 4025,
      "page": 4026,
      "bleb": 4027,
      "croh": 4028,
      "##clc": 4029,
      "shown": 4030,
      "screw": 4031,
      "vertebroplasty": 4032,
      "coiling": 4033,
      "##function": 4034,
      "gain": 4035,
      "lying": 4036,
      "foci": 4037,
      "makes": 4038,
      "unusual": 4039,
      "pse": 4040,
      "scapular": 4041,
      "pseud": 4042,
      "##agus": 4043,
      "##overed": 4044,
      "##esophagus": 4045,
      "tunnel": 4046,
      "hcc": 4047,
      "presyncope": 4048,
      "##atremia": 4049,
      "thin": 4050,
      "observed": 4051,
      "pcp": 4052,
      "##hes": 4053,
      "##paces": 4054,
      "block": 4055,
      "temper": 4056,
      "##aving": 4057,
      "##itution": 4058,
      "plan": 4059,
      "##gan": 4060,
      "ster": 4061,
      "thickened": 4062,
      "clamped": 4063,
      "favor": 4064,
      "##ram": 4065,
      "occurred": 4066,
      "pmhx": 4067,
      "bradycardia": 4068,
      "uti": 4069,
      "recog": 4070,
      "serial": 4071,
      "slow": 4072,
      "drug": 4073,
      "septal": 4074,
      "symmetric": 4075,
      "orthopnea": 4076,
      "##dal": 4077,
      "cord": 4078,
      "##icardium": 4079,
      "updated": 4080,
      "grow": 4081,
      "hypon": 4082,
      "delirium": 4083,
      "tunneled": 4084,
      "##isted": 4085,
      "unlike": 4086,
      "sx": 4087,
      "colitis": 4088,
      "pointing": 4089,
      "ild": 4090,
      "ports": 4091,
      "upward": 4092,
      "telephoneon": 4093,
      "prelim": 4094,
      "bullous": 4095,
      "star": 4096,
      "bulla": 4097,
      "lact": 4098,
      "tubing": 4099,
      "##odgkin": 4100,
      "unlikely": 4101,
      "##ushed": 4102,
      "##lay": 4103,
      "retained": 4104,
      "prolong": 4105,
      "hodgkin": 4106,
      "rig": 4107,
      "palp": 4108,
      "attenuation": 4109,
      "##itium": 4110,
      "interstitium": 4111,
      "distributed": 4112,
      "completion": 4113,
      "components": 4114,
      "gu": 4115,
      "mca": 4116,
      "inte": 4117,
      "mucus": 4118,
      "explan": 4119,
      "measures": 4120,
      "endob": 4121,
      "##flow": 4122,
      "hyponatremia": 4123,
      "##acute": 4124,
      "lymphang": 4125,
      "sitting": 4126,
      "steroid": 4127,
      "prolonged": 4128,
      "accentuation": 4129,
      "##fe": 4130,
      "##asia": 4131,
      "discontin": 4132,
      "correlated": 4133,
      "outflow": 4134,
      "strike": 4135,
      "##aa": 4136,
      "##ccess": 4137,
      "rect": 4138,
      "##ained": 4139,
      "cts": 4140,
      "epid": 4141,
      "qa": 4142,
      "##erve": 4143,
      "exaggerating": 4144,
      "##iency": 4145,
      "sty": 4146,
      "tob": 4147,
      "##ereb": 4148,
      "preliminary": 4149,
      "endobronchial": 4150,
      "epidural": 4151,
      "having": 4152,
      "##cies": 4153,
      "pylorus": 4154,
      "sectional": 4155,
      "explanation": 4156,
      "##ix": 4157,
      "##oss": 4158,
      "##ru": 4159,
      "success": 4160,
      "manner": 4161,
      "lytic": 4162,
      "extend": 4163,
      "bro": 4164,
      "anch": 4165,
      "definitively": 4166,
      "valvular": 4167,
      "latest": 4168,
      "interv": 4169,
      "prec": 4170,
      "sensitivity": 4171,
      "stylet": 4172,
      "tria": 4173,
      "traverses": 4174,
      "lad": 4175,
      "loculation": 4176,
      "##ossible": 4177,
      "secu": 4178,
      "pedicle": 4179,
      "quant": 4180,
      "pathologic": 4181,
      "stabil": 4182,
      "spi": 4183,
      "rotator": 4184,
      "nurses": 4185,
      "impossible": 4186,
      "subacute": 4187,
      "artifactual": 4188,
      "extrapleural": 4189,
      "brid": 4190,
      "##omal": 4191,
      "agg": 4192,
      "attribut": 4193,
      "offic": 4194,
      "expiratory": 4195,
      "pyloric": 4196,
      "##ling": 4197,
      "##han": 4198,
      "##encies": 4199,
      "naso": 4200,
      "102": 4201,
      "attributable": 4202,
      "epile": 4203,
      "unex": 4204,
      "centimeter": 4205,
      "den": 4206,
      "leukemia": 4207,
      "institution": 4208,
      "bronchop": 4209,
      "obscure": 4210,
      "blurring": 4211,
      "ring": 4212,
      "triang": 4213,
      "tree": 4214,
      "dka": 4215,
      "apart": 4216,
      "organ": 4217,
      "stenting": 4218,
      "ileus": 4219,
      "fist": 4220,
      "##ally": 4221,
      "feeling": 4222,
      "flare": 4223,
      "distortion": 4224,
      "bur": 4225,
      "##its": 4226,
      "too": 4227,
      "hematem": 4228,
      "neoesophagus": 4229,
      "exists": 4230,
      "sle": 4231,
      "##inc": 4232,
      "repe": 4233,
      "##veal": 4234,
      "true": 4235,
      "##parency": 4236,
      "##alg": 4237,
      "##iciency": 4238,
      "inn": 4239,
      "##acco": 4240,
      "systolic": 4241,
      "initially": 4242,
      "egd": 4243,
      "temperature": 4244,
      "bar": 4245,
      "cereb": 4246,
      "fre": 4247,
      "rt": 4248,
      "move": 4249,
      "diaph": 4250,
      "arthroplasty": 4251,
      "risk": 4252,
      "##ading": 4253,
      "##yc": 4254,
      "transparency": 4255,
      "nodularity": 4256,
      "rupt": 4257,
      "nsclc": 4258,
      "lymphangitic": 4259,
      "##land": 4260,
      "island": 4261,
      "##ances": 4262,
      "divertic": 4263,
      "triangular": 4264,
      "##struction": 4265,
      "cavitation": 4266,
      "advancing": 4267,
      "azygous": 4268,
      "obes": 4269,
      "neither": 4270,
      "coinc": 4271,
      "drop": 4272,
      "clearance": 4273,
      "resultant": 4274,
      "considerable": 4275,
      "projections": 4276,
      "##nant": 4277,
      "consolidated": 4278,
      "remnant": 4279,
      "aneurysmal": 4280,
      "tobacco": 4281,
      "rupture": 4282,
      "morph": 4283,
      "tp": 4284,
      "##stinal": 4285,
      "abutting": 4286,
      "crohn": 4287,
      "hematemesis": 4288,
      "state": 4289,
      "sore": 4290,
      "original": 4291,
      "##cal": 4292,
      "presentation": 4293,
      "resident": 4294,
      "tuberculous": 4295,
      "##coma": 4296,
      "##self": 4297,
      "colonic": 4298,
      "costal": 4299,
      "foot": 4300,
      "fistula": 4301,
      "gall": 4302,
      "contrib": 4303,
      "suction": 4304,
      "##icuspid": 4305,
      "unw": 4306,
      "regard": 4307,
      "cystic": 4308,
      "ps": 4309,
      "pur": 4310,
      "pushed": 4311,
      "##erg": 4312,
      "ercp": 4313,
      "##ilateral": 4314,
      "nerve": 4315,
      "reex": 4316,
      "neoplasm": 4317,
      "##theless": 4318,
      "reveal": 4319,
      "ablation": 4320,
      "portably": 4321,
      "peric": 4322,
      "ribc": 4323,
      "detailed": 4324,
      "ovoid": 4325,
      "nevertheless": 4326,
      "tia": 4327,
      "##abd": 4328,
      "aggressive": 4329,
      "nasoenteric": 4330,
      "obl": 4331,
      "itself": 4332,
      "osteophyte": 4333,
      "ribcage": 4334,
      "aff": 4335,
      "##carb": 4336,
      "symmetrically": 4337,
      "stabilization": 4338,
      "aaa": 4339,
      "pf": 4340,
      "##structive": 4341,
      "persistence": 4342,
      "shape": 4343,
      "polytraum": 4344,
      "blunted": 4345,
      "polytrauma": 4346,
      "sb": 4347,
      "spar": 4348,
      "ventilator": 4349,
      "lactate": 4350,
      "abx": 4351,
      "lucent": 4352,
      "aut": 4353,
      "##cmt": 4354,
      "plcmt": 4355,
      "##hout": 4356,
      "test": 4357,
      "hypercarb": 4358,
      "hospitalization": 4359,
      "tricuspid": 4360,
      "heavily": 4361,
      "##dural": 4362,
      "##led": 4363,
      "pleure": 4364,
      "lucencies": 4365,
      "obliter": 4366,
      "mds": 4367,
      "append": 4368,
      "clar": 4369,
      "##ability": 4370,
      "myalg": 4371,
      "##night": 4372,
      "depression": 4373,
      "bridging": 4374,
      "able": 4375,
      "gre": 4376,
      "##sa": 4377,
      "##enign": 4378,
      "##isone": 4379,
      "acutely": 4380,
      "subdural": 4381,
      "##stead": 4382,
      "ii": 4383,
      "##eval": 4384,
      "##til": 4385,
      "rout": 4386,
      "para": 4387,
      "flash": 4388,
      "pea": 4389,
      "echocardi": 4390,
      "reactive": 4391,
      "routine": 4392,
      "##ogram": 4393,
      "us": 4394,
      "once": 4395,
      "depic": 4396,
      "half": 4397,
      "necrot": 4398,
      "accounts": 4399,
      "crosses": 4400,
      "recogni": 4401,
      "bub": 4402,
      "##nam": 4403,
      "##arian": 4404,
      "pack": 4405,
      "necrotizing": 4406,
      "overd": 4407,
      "predn": 4408,
      "reexp": 4409,
      "pun": 4410,
      "##rt": 4411,
      "forward": 4412,
      "##aken": 4413,
      "##acia": 4414,
      "intox": 4415,
      "resusc": 4416,
      "discovered": 4417,
      "ovarian": 4418,
      "dors": 4419,
      "reaction": 4420,
      "##otid": 4421,
      "washout": 4422,
      "##eness": 4423,
      "spread": 4424,
      "regurg": 4425,
      "arthritis": 4426,
      "##ked": 4427,
      "transfusion": 4428,
      "centimeters": 4429,
      "prednisone": 4430,
      "##off": 4431,
      "##noid": 4432,
      "##arth": 4433,
      "anat": 4434,
      "bubble": 4435,
      "benign": 4436,
      "our": 4437,
      "precise": 4438,
      "asymmetrically": 4439,
      "complaining": 4440,
      "triple": 4441,
      "obesity": 4442,
      "overdose": 4443,
      "locations": 4444,
      "##respons": 4445,
      "##enting": 4446,
      "explor": 4447,
      "primarily": 4448,
      "evolution": 4449,
      "number": 4450,
      "mist": 4451,
      "minute": 4452,
      "make": 4453,
      "depending": 4454,
      "recor": 4455,
      "feas": 4456,
      "reticul": 4457,
      "carotid": 4458,
      "##enchymal": 4459,
      "revision": 4460,
      "##ologies": 4461,
      "##ropathy": 4462,
      "unrespons": 4463,
      "directed": 4464,
      "facility": 4465,
      "feasible": 4466,
      "radiologist": 4467,
      "ectatic": 4468,
      "did": 4469,
      "ga": 4470,
      "101": 4471,
      "dorsal": 4472,
      "sum": 4473,
      "attributed": 4474,
      "hyperlucency": 4475,
      "##arenchymal": 4476,
      "lig": 4477,
      "steroids": 4478,
      "##uck": 4479,
      "##asion": 4480,
      "deb": 4481,
      "palpation": 4482,
      "emesis": 4483,
      "looped": 4484,
      "morphology": 4485,
      "mistaken": 4486,
      "##lb": 4487,
      "accur": 4488,
      "pleurex": 4489,
      "serious": 4490,
      "resuscitation": 4491,
      "records": 4492,
      "bmt": 4493,
      "##utter": 4494,
      "reflected": 4495,
      "##hole": 4496,
      "sidehole": 4497,
      "##itect": 4498,
      "percutaneous": 4499,
      "closure": 4500,
      "resides": 4501,
      "architect": 4502,
      "evacuation": 4503,
      "##arach": 4504,
      "alone": 4505,
      "subc": 4506,
      "subarach": 4507,
      "bacter": 4508,
      "carcin": 4509,
      "ruled": 4510,
      "introdu": 4511,
      "juxtahilar": 4512,
      "manifestation": 4513,
      "subarachnoid": 4514,
      "from___": 4515,
      "anast": 4516,
      "cholangitis": 4517,
      "secure": 4518,
      "whipple": 4519,
      "parap": 4520,
      "##omalacia": 4521,
      "np": 4522,
      "##ech": 4523,
      "##idosis": 4524,
      "peritoneal": 4525,
      "peripherally": 4526,
      "mrsa": 4527,
      "schf": 4528,
      "centrally": 4529,
      "exaggerate": 4530,
      "pericarditis": 4531,
      "hor": 4532,
      "oral": 4533,
      "##intub": 4534,
      "##ssa": 4535,
      "transient": 4536,
      "speech": 4537,
      "fung": 4538,
      "deposition": 4539,
      "punct": 4540,
      "inh": 4541,
      "dysfunction": 4542,
      "certainly": 4543,
      "spaces": 4544,
      "haze": 4545,
      "##quential": 4546,
      "illness": 4547,
      "pfi": 4548,
      "lab": 4549,
      "rcc": 4550,
      "##ers": 4551,
      "ingest": 4552,
      "##ption": 4553,
      "reintub": 4554,
      "endpl": 4555,
      "residing": 4556,
      "cellulitis": 4557,
      "opaque": 4558,
      "older": 4559,
      "deviated": 4560,
      "bedside": 4561,
      "regurgitation": 4562,
      "##cent": 4563,
      "sequential": 4564,
      "dextro": 4565,
      "step": 4566,
      "screening": 4567,
      "##ycle": 4568,
      "##iet": 4569,
      "pneumopericardium": 4570,
      "tracheobronchoplasty": 4571,
      "coinciding": 4572,
      "tenting": 4573,
      "uro": 4574,
      "##onve": 4575,
      "##ressing": 4576,
      "traced": 4577,
      "##onvex": 4578,
      "cort": 4579,
      "##fa": 4580,
      "___d": 4581,
      "antr": 4582,
      "bladder": 4583,
      "restric": 4584,
      "ankle": 4585,
      "antic": 4586,
      "cpd": 4587,
      "reexpansion": 4588,
      "introducer": 4589,
      "impaction": 4590,
      "obliqu": 4591,
      "summation": 4592,
      "rod": 4593,
      "##to": 4594,
      "##ush": 4595,
      "overnight": 4596,
      "adjust": 4597,
      "callus": 4598,
      "rigors": 4599,
      "sats": 4600,
      "##rive": 4601,
      "enhan": 4602,
      "subt": 4603,
      "orientation": 4604,
      "##edic": 4605,
      "dim": 4606,
      "considerations": 4607,
      "##isional": 4608,
      "##manent": 4609,
      "discontinu": 4610,
      "##itness": 4611,
      "##icu": 4612,
      "permanent": 4613,
      "sulci": 4614,
      "attempted": 4615,
      "lipomatosis": 4616,
      "contribute": 4617,
      "und": 4618,
      "vap": 4619,
      "##ry": 4620,
      "nephrectomy": 4621,
      "##entation": 4622,
      "inters": 4623,
      "sple": 4624,
      "laparoscopic": 4625,
      "unexpl": 4626,
      "barium": 4627,
      "##ht": 4628,
      "tubular": 4629,
      "predis": 4630,
      "tempor": 4631,
      "circums": 4632,
      "fair": 4633,
      "take": 4634,
      "opacified": 4635,
      "orthopedic": 4636,
      "diaphor": 4637,
      "punctate": 4638,
      "unexplained": 4639,
      "circumscribed": 4640,
      "fold": 4641,
      "wheezes": 4642,
      "embolization": 4643,
      "ip": 4644,
      "symmetrical": 4645,
      "##vascular": 4646,
      "hyperd": 4647,
      "craniotomy": 4648,
      "reticulon": 4649,
      "radio": 4650,
      "emailed": 4651,
      "screws": 4652,
      "##ans": 4653,
      "##ains": 4654,
      "surve": 4655,
      "enters": 4656,
      "coales": 4657,
      "strongly": 4658,
      "recognized": 4659,
      "pv": 4660,
      "##iant": 4661,
      "etiologies": 4662,
      "affect": 4663,
      "sent": 4664,
      "##stance": 4665,
      "##neumonia": 4666,
      "range": 4667,
      "similarly": 4668,
      "reticulonodular": 4669,
      "##jun": 4670,
      "##tectomy": 4671,
      "aspir": 4672,
      "margins": 4673,
      "marrow": 4674,
      "follows": 4675,
      "superimposition": 4676,
      "repeated": 4677,
      "thrive": 4678,
      "extension": 4679,
      "visualize": 4680,
      "output": 4681,
      "obliquity": 4682,
      "allo": 4683,
      "undergoing": 4684,
      "blebectomy": 4685,
      "##itnessed": 4686,
      "##psis": 4687,
      "identify": 4688,
      "fairly": 4689,
      "%)": 4690,
      "##und": 4691,
      "##ves": 4692,
      "distinct": 4693,
      "taking": 4694,
      "making": 4695,
      "underpenetrated": 4696,
      "predischarge": 4697,
      "temporary": 4698,
      "flo": 4699,
      "endplate": 4700,
      "pul": 4701,
      "##hot": 4702,
      "reach": 4703,
      "leading": 4704,
      "aspects": 4705,
      "pelvic": 4706,
      "office": 4707,
      "bacterial": 4708,
      "lacer": 4709,
      "##pus": 4710,
      "consequ": 4711,
      "globular": 4712,
      "improve": 4713,
      "aches": 4714,
      "femoral": 4715,
      "rectal": 4716,
      "hypercarbic": 4717,
      "spurring": 4718,
      "representative": 4719,
      "failed": 4720,
      "complaint": 4721,
      "requirements": 4722,
      "mie": 4723,
      "consequence": 4724,
      "ja": 4725,
      "complex": 4726,
      "beh": 4727,
      "##umerable": 4728,
      "valves": 4729,
      "innumerable": 4730,
      "myalgias": 4731,
      "mediastin": 4732,
      "##ejun": 4733,
      "##hy": 4734,
      "prot": 4735,
      "vt": 4736,
      "##amin": 4737,
      "seating": 4738,
      "suff": 4739,
      "embolus": 4740,
      "attending": 4741,
      "##ulating": 4742,
      "penetr": 4743,
      "prote": 4744,
      "ventricul": 4745,
      "##iocarcinoma": 4746,
      "tracheobronchial": 4747,
      "sparing": 4748,
      "antrum": 4749,
      "diaphoresis": 4750,
      "vq": 4751,
      "segmental": 4752,
      "rv": 4753,
      "tx": 4754,
      "##aft": 4755,
      "desaturations": 4756,
      "##ography": 4757,
      "width": 4758,
      "##ological": 4759,
      "perforated": 4760,
      "flow": 4761,
      "##sepsis": 4762,
      "coarsened": 4763,
      "slowly": 4764,
      "##rated": 4765,
      "##eds": 4766,
      "##entectomy": 4767,
      "##icient": 4768,
      "##opath": 4769,
      "##openia": 4770,
      "##oscoliosis": 4771,
      "green": 4772,
      "debrid": 4773,
      "##roll": 4774,
      "contact": 4775,
      "ileostomy": 4776,
      "osteopenic": 4777,
      "ting": 4778,
      "##opulmonary": 4779,
      "portal": 4780,
      "multil": 4781,
      "pnx": 4782,
      "questioned": 4783,
      "angulation": 4784,
      "atherosclerosis": 4785,
      "procedural": 4786,
      "bronchopneumonia": 4787,
      "est": 4788,
      "tenth": 4789,
      "##ament": 4790,
      "millim": 4791,
      "thanks": 4792,
      "urosepsis": 4793,
      "reeval": 4794,
      "##ocr": 4795,
      "sched": 4796,
      "cover": 4797,
      "debridement": 4798,
      "gib": 4799,
      "##nia": 4800,
      "##chdal": 4801,
      "interspace": 4802,
      "bochdal": 4803,
      "sensation": 4804,
      "floor": 4805,
      "posted": 4806,
      "spond": 4807,
      "comparable": 4808,
      "amb": 4809,
      "immediate": 4810,
      "depicted": 4811,
      "bochdalek": 4812,
      "##atures": 4813,
      "##asp": 4814,
      "latter": 4815,
      "osteo": 4816,
      "lupus": 4817,
      "movement": 4818,
      "recurred": 4819,
      "femur": 4820,
      "micu": 4821,
      "##oce": 4822,
      "those": 4823,
      "##ostic": 4824,
      "using": 4825,
      "iss": 4826,
      "asses": 4827,
      "localizing": 4828,
      "neuro": 4829,
      "spondyl": 4830,
      "densely": 4831,
      "oriented": 4832,
      "anastom": 4833,
      "core": 4834,
      "swallow": 4835,
      "correlates": 4836,
      "##osin": 4837,
      "##ophil": 4838,
      "activ": 4839,
      "indentation": 4840,
      "record": 4841,
      "peribronch": 4842,
      "sequelae": 4843,
      "occup": 4844,
      "##abdominal": 4845,
      "ligament": 4846,
      "listed": 4847,
      "rate": 4848,
      "const": 4849,
      "situation": 4850,
      "rhe": 4851,
      "seem": 4852,
      "##ella": 4853,
      "occupy": 4854,
      "mening": 4855,
      "##prod": 4856,
      "pnu": 4857,
      "sideport": 4858,
      "collections": 4859,
      "room": 4860,
      "diverticulitis": 4861,
      "subcentimeter": 4862,
      "##aspinal": 4863,
      "eosin": 4864,
      "tib": 4865,
      "laparotomy": 4866,
      "anatom": 4867,
      "agitation": 4868,
      "require": 4869,
      "obstruct": 4870,
      "going": 4871,
      "##rolled": 4872,
      "rheum": 4873,
      "miss": 4874,
      "ent": 4875,
      "##operitoneal": 4876,
      "##etric": 4877,
      "enhanced": 4878,
      "mes": 4879,
      "you": 4880,
      "##wer": 4881,
      "##allowing": 4882,
      "substantiated": 4883,
      "drained": 4884,
      "swallowing": 4885,
      "nursing": 4886,
      "##neumonic": 4887,
      "to___": 4888,
      "##izontal": 4889,
      "##pef": 4890,
      "mva": 4891,
      "auto": 4892,
      "horizontal": 4893,
      "##productive": 4894,
      "sed": 4895,
      "##bd": 4896,
      "##arynge": 4897,
      "paraspinal": 4898,
      "across": 4899,
      "hemorrhag": 4900,
      "insuff": 4901,
      "cholecystitis": 4902,
      "called": 4903,
      "dextroc": 4904,
      "laceration": 4905,
      "ventriculoperitoneal": 4906,
      "##opathic": 4907,
      "retic": 4908,
      "sited": 4909,
      "rapidly": 4910,
      "migration": 4911,
      "ecmo": 4912,
      "deno": 4913,
      "accurately": 4914,
      "activity": 4915,
      "gallst": 4916,
      "##diation": 4917,
      "##ching": 4918,
      "##aning": 4919,
      "passing": 4920,
      "gland": 4921,
      "##aryngeal": 4922,
      "vol": 4923,
      "##ids": 4924,
      "manag": 4925,
      "##illance": 4926,
      "angi": 4927,
      "##psy": 4928,
      "spiking": 4929,
      "frequent": 4930,
      "surveillance": 4931,
      "eosinophil": 4932,
      "sides": 4933,
      "##ley": 4934,
      "focally": 4935,
      "##obstructive": 4936,
      "provisional": 4937,
      "probe": 4938,
      "nonproductive": 4939,
      "diagnostic": 4940,
      "sufficient": 4941,
      "bb": 4942,
      "oss": 4943,
      "proble": 4944,
      "##ocyst": 4945,
      "notified": 4946,
      "nash": 4947,
      "hepat": 4948,
      "striking": 4949,
      "millimetric": 4950,
      "herni": 4951,
      "immunosuppressed": 4952,
      "necessarily": 4953,
      "hfpef": 4954,
      "slurred": 4955,
      "gastrostomy": 4956,
      "varic": 4957,
      "cholangiocarcinoma": 4958,
      "##bid": 4959,
      "struck": 4960,
      "detecting": 4961,
      "segmentectomy": 4962,
      "depos": 4963,
      "migrated": 4964,
      "reticulation": 4965,
      "dht": 4966,
      "lar": 4967,
      "##lip": 4968,
      "##arin": 4969,
      "orif": 4970,
      "tend": 4971,
      "lobulated": 4972,
      "considerably": 4973,
      "bes": 4974,
      "ri": 4975,
      "##osures": 4976,
      "##odynam": 4977,
      "documentation": 4978,
      "concurrently": 4979,
      "bs": 4980,
      "mention": 4981,
      "##omyel": 4982,
      "##tebral": 4983,
      "exploratory": 4984,
      "ker": 4985,
      "structural": 4986,
      "occasion": 4987,
      "ili": 4988,
      "sta": 4989,
      "##etic": 4990,
      "vasculitis": 4991,
      "anchors": 4992,
      "##iate": 4993,
      "reports": 4994,
      "object": 4995,
      "##arely": 4996,
      "determin": 4997,
      "variant": 4998,
      "besides": 4999,
      "eating": 5000,
      "hig": 5001,
      "arthropathy": 5002,
      "##ocol": 5003,
      "fungal": 5004,
      "flowing": 5005,
      "squ": 5006,
      "##ored": 5007,
      "hemorrhagic": 5008,
      "idi": 5009,
      "inability": 5010,
      "100": 5011,
      "occupying": 5012,
      "las": 5013,
      "##onse": 5014,
      "tooth": 5015,
      "rounds": 5016,
      "##eminated": 5017,
      "looking": 5018,
      "starting": 5019,
      "unresponsive": 5020,
      "gang": 5021,
      "getting": 5022,
      "##gmoid": 5023,
      "cold": 5024,
      "query": 5025,
      "implants": 5026,
      "vertebrae": 5027,
      "mentioned": 5028,
      "idiopathic": 5029,
      "barely": 5030,
      "##amp": 5031,
      "acuity": 5032,
      "giving": 5033,
      "cry": 5034,
      "dextroconvex": 5035,
      "bic": 5036,
      "rn": 5037,
      "##cence": 5038,
      "##vertebral": 5039,
      "epilepsy": 5040,
      "##omyelitis": 5041,
      "bip": 5042,
      "rash": 5043,
      "wk": 5044,
      "##--": 5045,
      "lie": 5046,
      "perit": 5047,
      "##imes": 5048,
      "exposures": 5049,
      "arms": 5050,
      "board": 5051,
      "obliques": 5052,
      "cephalad": 5053,
      "overinflated": 5054,
      "parapneumonic": 5055,
      "largest": 5056,
      "tap": 5057,
      "##ken": 5058,
      "extr": 5059,
      "hypoph": 5060,
      "phle": 5061,
      "##roidism": 5062,
      "disseminated": 5063,
      "kerley": 5064,
      "riding": 5065,
      "##istic": 5066,
      "anterolateral": 5067,
      "##romised": 5068,
      "response": 5069,
      "levoscoliosis": 5070,
      "unwitnessed": 5071,
      "cardiovascular": 5072,
      "destruction": 5073,
      "extended": 5074,
      "##xia": 5075,
      "##bronchial": 5076,
      "##dily": 5077,
      "rough": 5078,
      "higher": 5079,
      "gold": 5080,
      "oval": 5081,
      "##gra": 5082,
      "##amous": 5083,
      "angio": 5084,
      "thoraco": 5085,
      "flutter": 5086,
      "scans": 5087,
      "food": 5088,
      "rij": 5089,
      "ger": 5090,
      "lle": 5091,
      "hemodynam": 5092,
      "amp": 5093,
      "osteomyelitis": 5094,
      "dictated": 5095,
      "##tp": 5096,
      "##fer": 5097,
      "infx": 5098,
      "contusions": 5099,
      "hom": 5100,
      "musc": 5101,
      "p________________________________________________________________": 5102,
      "rfa": 5103,
      "##ins": 5104,
      "##_________________": 5105,
      "discharge": 5106,
      "postobstructive": 5107,
      "calcium": 5108,
      "sarcoma": 5109,
      "optimally": 5110,
      "osa": 5111,
      "existed": 5112,
      "ischemia": 5113,
      "gait": 5114,
      "carcinomatosis": 5115,
      "insufficiency": 5116,
      "p_________________________________________________________________________________": 5117,
      "cc": 5118,
      "coc": 5119,
      "crowded": 5120,
      "thyroidectomy": 5121,
      "bulging": 5122,
      "lasix": 5123,
      "phlegm": 5124,
      "mssa": 5125,
      "wks": 5126,
      "fluor": 5127,
      "crypt": 5128,
      "##pro": 5129,
      "##nect": 5130,
      "stra": 5131,
      "infections": 5132,
      "##issural": 5133,
      "broken": 5134,
      "intoxication": 5135,
      "##idemia": 5136,
      "##vest": 5137,
      "introduction": 5138,
      "inhal": 5139,
      "squamous": 5140,
      "roughly": 5141,
      "##uish": 5142,
      "sigmoid": 5143,
      "##iving": 5144,
      "postoperatively": 5145,
      "readily": 5146,
      "cortical": 5147,
      "obstructing": 5148,
      "get": 5149,
      "##ty": 5150,
      "##nectomy": 5151,
      "##oses": 5152,
      "nsip": 5153,
      "occupies": 5154,
      "cd": 5155,
      "##alle": 5156,
      "##asive": 5157,
      "relay": 5158,
      "circ": 5159,
      "hypotensive": 5160,
      "glob": 5161,
      "heaviness": 5162,
      "returned": 5163,
      "dull": 5164,
      "hous": 5165,
      "sure": 5166,
      "permit": 5167,
      "acs": 5168,
      "flush": 5169,
      "pulling": 5170,
      "unequivocal": 5171,
      "dimension": 5172,
      "##hab": 5173,
      "approval": 5174,
      "disting": 5175,
      "period": 5176,
      "localize": 5177,
      "flexed": 5178,
      "contig": 5179,
      "transbronchial": 5180,
      "progressing": 5181,
      "cranial": 5182,
      "desats": 5183,
      "invasive": 5184,
      "factors": 5185,
      "protocol": 5186,
      "denote": 5187,
      "rehab": 5188,
      "power": 5189,
      "asper": 5190,
      "refr": 5191,
      "assist": 5192,
      "soon": 5193,
      "reading": 5194,
      "cy": 5195,
      "##igo": 5196,
      "preserved": 5197,
      "emerg": 5198,
      "physi": 5199,
      "flexure": 5200,
      "cerebral": 5201,
      "gerd": 5202,
      "homogeneous": 5203,
      "dro": 5204,
      "qual": 5205,
      "shaft": 5206,
      "fxs": 5207,
      "electron": 5208,
      "deposits": 5209,
      "%,": 5210,
      "case": 5211,
      "onto": 5212,
      "trap": 5213,
      "grad": 5214,
      "hypertensive": 5215,
      "formations": 5216,
      "reassessment": 5217,
      "duct": 5218,
      "lamin": 5219,
      "tail": 5220,
      "siz": 5221,
      "##agni": 5222,
      "face": 5223,
      "separation": 5224,
      "mediastinoscopy": 5225,
      "relayed": 5226,
      "refractory": 5227,
      "emergency": 5228,
      "aids": 5229,
      "invest": 5230,
      "periv": 5231,
      "clot": 5232,
      "etc": 5233,
      "scars": 5234,
      "hrs": 5235,
      "favoring": 5236,
      "splenectomy": 5237,
      "distinguish": 5238,
      "investig": 5239,
      "instead": 5240,
      "unilateral": 5241,
      "person": 5242,
      "apicolateral": 5243,
      "smooth": 5244,
      "electro": 5245,
      "%),": 5246,
      "contiguous": 5247,
      "perivascular": 5248,
      "pne": 5249,
      "##nole": 5250,
      "hemop": 5251,
      "verify": 5252,
      "somnole": 5253,
      "103": 5254,
      "myast": 5255,
      "receiving": 5256,
      "##aches": 5257,
      "radiodense": 5258,
      "ordering": 5259,
      "complaints": 5260,
      "varices": 5261,
      "tamp": 5262,
      "##jection": 5263,
      "expans": 5264,
      "inclusion": 5265,
      "marginal": 5266,
      "bullae": 5267,
      "big": 5268,
      "stat": 5269,
      "##oler": 5270,
      "pole": 5271,
      "defect": 5272,
      "curled": 5273,
      "neoplastic": 5274,
      "##lipidemia": 5275,
      "dram": 5276,
      "##ively": 5277,
      "decompression": 5278,
      "urinary": 5279,
      "diabetic": 5280,
      "started": 5281,
      "asperg": 5282,
      "ttp": 5283,
      "##iasis": 5284,
      "##gia": 5285,
      "##onade": 5286,
      "fine": 5287,
      "colonoscopy": 5288,
      "intraparenchymal": 5289,
      "pvd": 5290,
      "myasthe": 5291,
      "##uter": 5292,
      "##ered": 5293,
      "##aking": 5294,
      "cavit": 5295,
      "replacements": 5296,
      "##mptomatic": 5297,
      "exaggeration": 5298,
      "##jugular": 5299,
      "vertigo": 5300,
      "rods": 5301,
      "electronic": 5302,
      "##ocomp": 5303,
      "osseus": 5304,
      "transjugular": 5305,
      "correctly": 5306,
      "immunocomp": 5307,
      "tamponade": 5308,
      "expansile": 5309,
      "intravenous": 5310,
      "glenoid": 5311,
      "occlusion": 5312,
      "aspergill": 5313,
      "##vh": 5314,
      "##ising": 5315,
      "toe": 5316,
      "##aine": 5317,
      "many": 5318,
      "admin": 5319,
      "pressures": 5320,
      "projectional": 5321,
      "vagal": 5322,
      "ivd": 5323,
      "nephro": 5324,
      "commonly": 5325,
      "seems": 5326,
      "management": 5327,
      "bx": 5328,
      "##neic": 5329,
      "##uted": 5330,
      "asymptomatic": 5331,
      "thrombosis": 5332,
      "micron": 5333,
      "intestinal": 5334,
      "echocardiography": 5335,
      "multiloc": 5336,
      "rheumat": 5337,
      "hypopharynx": 5338,
      "thoracoabdominal": 5339,
      "droop": 5340,
      "##inte": 5341,
      "heights": 5342,
      "##rophy": 5343,
      "coalescent": 5344,
      "protection": 5345,
      "administ": 5346,
      "bran": 5347,
      "yell": 5348,
      "##uity": 5349,
      "allow": 5350,
      "##clus": 5351,
      "transplantation": 5352,
      "pseudo": 5353,
      "clarify": 5354,
      "unequivocally": 5355,
      "yellow": 5356,
      "cris": 5357,
      "##of": 5358,
      "##xed": 5359,
      "contains": 5360,
      "aband": 5361,
      "strict": 5362,
      "discord": 5363,
      "behind": 5364,
      "quality": 5365,
      "myasthenia": 5366,
      "rob": 5367,
      "tear": 5368,
      "##ines": 5369,
      "initi": 5370,
      "anore": 5371,
      "lookup": 5372,
      "ingestion": 5373,
      "domin": 5374,
      "say": 5375,
      "##sy": 5376,
      "##neath": 5377,
      "##ipt": 5378,
      "##ulent": 5379,
      "redo": 5380,
      "tracheobronchomalacia": 5381,
      "fragments": 5382,
      "intervention": 5383,
      "rheumatoid": 5384,
      "crisis": 5385,
      "abandoned": 5386,
      "ell": 5387,
      "##yroidism": 5388,
      "##altered": 5389,
      "##itud": 5390,
      "conce": 5391,
      "unaltered": 5392,
      "chyl": 5393,
      "##obar": 5394,
      "underneath": 5395,
      "thym": 5396,
      "oroph": 5397,
      "technically": 5398,
      "organizing": 5399,
      "house": 5400,
      "aw": 5401,
      "lb": 5402,
      "rle": 5403,
      "##emonia": 5404,
      "travel": 5405,
      "distally": 5406,
      "conspicuity": 5407,
      "covering": 5408,
      "seriously": 5409,
      "cocaine": 5410,
      "multiloculated": 5411,
      "anorexia": 5412,
      "##kes": 5413,
      "pericardi": 5414,
      "appearances": 5415,
      "scal": 5416,
      "regional": 5417,
      "intravascular": 5418,
      "opp": 5419,
      "purulent": 5420,
      "##aresis": 5421,
      "##ents": 5422,
      "##iety": 5423,
      "##mu": 5424,
      "##nce": 5425,
      "##ina": 5426,
      "##atter": 5427,
      "pauc": 5428,
      "clinic": 5429,
      "detectable": 5430,
      "affecting": 5431,
      "trop": 5432,
      "broad": 5433,
      "cut": 5434,
      "ventral": 5435,
      "##uate": 5436,
      "##ned": 5437,
      "beg": 5438,
      "##version": 5439,
      "requires": 5440,
      "##airs": 5441,
      "pod___": 5442,
      "looks": 5443,
      "separately": 5444,
      "hyperlucent": 5445,
      "##iptical": 5446,
      "elliptical": 5447,
      "paucity": 5448,
      "##eve": 5449,
      "controlled": 5450,
      "morbid": 5451,
      "convexity": 5452,
      "successful": 5453,
      "fd": 5454,
      "##ylo": 5455,
      "##rex": 5456,
      "until": 5457,
      "contribut": 5458,
      "recon": 5459,
      "##portion": 5460,
      "produ": 5461,
      "kyphoplasty": 5462,
      "psy": 5463,
      "##hyd": 5464,
      "pnuemonia": 5465,
      "sch": 5466,
      "req": 5467,
      "reaches": 5468,
      "exact": 5469,
      "methot": 5470,
      "involve": 5471,
      "adjustment": 5472,
      "aspirated": 5473,
      "##rexate": 5474,
      "methotrexate": 5475,
      "midt": 5476,
      "hyperlipidemia": 5477,
      "##ode": 5478,
      "myocardi": 5479,
      "seven": 5480,
      "interventional": 5481,
      "immunocompromised": 5482,
      "mell": 5483,
      "sk": 5484,
      "##oag": 5485,
      "##farin": 5486,
      "##omegaly": 5487,
      "contacted": 5488,
      "bilat": 5489,
      "fell": 5490,
      "subj": 5491,
      "warfarin": 5492,
      "former": 5493,
      "outpatient": 5494,
      "anticoag": 5495,
      "sedated": 5496,
      "mellitus": 5497,
      "wr": 5498,
      "##alc": 5499,
      "##oluc": 5500,
      "radioluc": 5501,
      "paralle": 5502,
      "muscle": 5503,
      "dominant": 5504,
      "fdg": 5505,
      "how": 5506,
      "hypoth": 5507,
      "tachyp": 5508,
      "directly": 5509,
      "bloody": 5510,
      "echo": 5511,
      "hemopneumothorax": 5512,
      "toler": 5513,
      "##leman": 5514,
      "##cule": 5515,
      "somet": 5516,
      "longitud": 5517,
      "coarsening": 5518,
      "anchor": 5519,
      "##uated": 5520,
      "##ten": 5521,
      "amylo": 5522,
      "masslike": 5523,
      "eosinophilic": 5524,
      "cult": 5525,
      "sac": 5526,
      "congen": 5527,
      "connect": 5528,
      "unless": 5529,
      "modal": 5530,
      "supporting": 5531,
      "discern": 5532,
      "safe": 5533,
      "implanted": 5534,
      "bulge": 5535,
      "duodenal": 5536,
      "somnolence": 5537,
      "##intestinal": 5538,
      "longitudinal": 5539,
      "##tive": 5540,
      "interposition": 5541,
      "sublu": 5542,
      "thank": 5543,
      "pancreas": 5544,
      "various": 5545,
      "become": 5546,
      "issues": 5547,
      "bigger": 5548,
      "targ": 5549,
      "real": 5550,
      "##isition": 5551,
      "deficiency": 5552,
      "grafting": 5553,
      "variation": 5554,
      "##iceal": 5555,
      "epilept": 5556,
      "architecture": 5557,
      "target": 5558,
      "gent": 5559,
      "mas": 5560,
      "fluids": 5561,
      "narrowed": 5562,
      "determined": 5563,
      "laminectomy": 5564,
      "eu": 5565,
      "xrt": 5566,
      "##card": 5567,
      "##ulations": 5568,
      "self": 5569,
      "interl": 5570,
      "features": 5571,
      "pathological": 5572,
      "growing": 5573,
      "cryptogenic": 5574,
      "sizable": 5575,
      "congenital": 5576,
      "uppermost": 5577,
      "##quency": 5578,
      "##oventricular": 5579,
      "tbi": 5580,
      "hematocr": 5581,
      "points": 5582,
      "favors": 5583,
      "hematocrit": 5584,
      "80": 5585,
      "##over": 5586,
      "online": 5587,
      "atrioventricular": 5588,
      "tvr": 5589,
      "##enced": 5590,
      "##ithiasis": 5591,
      "##ulus": 5592,
      "##uria": 5593,
      "seed": 5594,
      "anx": 5595,
      "properly": 5596,
      "kinking": 5597,
      "guided": 5598,
      "permits": 5599,
      "ivdu": 5600,
      "robotic": 5601,
      "aph": 5602,
      "tv": 5603,
      "##inning": 5604,
      "tell": 5605,
      "break": 5606,
      "cartil": 5607,
      "discussion": 5608,
      "reintubation": 5609,
      "##hydration": 5610,
      "anxiety": 5611,
      "max": 5612,
      "trial": 5613,
      "##omon": 5614,
      "palsy": 5615,
      "gastrectomy": 5616,
      "ult": 5617,
      "virt": 5618,
      "cerebell": 5619,
      "tpa": 5620,
      "meningitis": 5621,
      "bicycle": 5622,
      "##grade": 5623,
      "myocardial": 5624,
      "dose": 5625,
      "##oin": 5626,
      "mainly": 5627,
      "sxs": 5628,
      "ips": 5629,
      "mand": 5630,
      "run": 5631,
      "##mp": 5632,
      "stag": 5633,
      "##ange": 5634,
      "represented": 5635,
      "subtly": 5636,
      "discontinued": 5637,
      "chylothorax": 5638,
      "##mune": 5639,
      "hypothyroidism": 5640,
      "epilepticus": 5641,
      "##demonstr": 5642,
      "induced": 5643,
      "pregn": 5644,
      "preexisting": 5645,
      "##arged": 5646,
      "##app": 5647,
      "useful": 5648,
      "ossification": 5649,
      "electrode": 5650,
      "hct": 5651,
      "##used": 5652,
      "cardiomediastinum": 5653,
      "##vers": 5654,
      "wean": 5655,
      "reveals": 5656,
      "##cardic": 5657,
      "ipsilateral": 5658,
      "talc": 5659,
      "radiographdemonstr": 5660,
      "##please": 5661,
      "resections": 5662,
      "dislod": 5663,
      "radiographdemonstrates": 5664,
      "bif": 5665,
      "batter": 5666,
      "cre": 5667,
      "om": 5668,
      "##bing": 5669,
      "commin": 5670,
      "##cends": 5671,
      "intake": 5672,
      "excludes": 5673,
      "##ostosis": 5674,
      "sbp": 5675,
      "battery": 5676,
      "bile": 5677,
      "##arcoma": 5678,
      "chil": 5679,
      "pneumonias": 5680,
      "weighted": 5681,
      "bands": 5682,
      "separate": 5683,
      "kink": 5684,
      "dri": 5685,
      "jejun": 5686,
      "mac": 5687,
      "##dm": 5688,
      "##ts": 5689,
      "intermedi": 5690,
      "prefer": 5691,
      "ans": 5692,
      "against": 5693,
      "regressed": 5694,
      "comminuted": 5695,
      "lac": 5696,
      "wal": 5697,
      "##fissural": 5698,
      "##omies": 5699,
      "continuing": 5700,
      "thoracoscopy": 5701,
      "pending": 5702,
      "contributing": 5703,
      "wrist": 5704,
      "gentleman": 5705,
      "lt": 5706,
      "##cerative": 5707,
      "##omet": 5708,
      "##ough": 5709,
      "rad": 5710,
      "##ries": 5711,
      "remission": 5712,
      "cml": 5713,
      "characteristic": 5714,
      "##urysm": 5715,
      "osteophyt": 5716,
      "ulcerative": 5717,
      "kinked": 5718,
      "successive": 5719,
      "stricture": 5720,
      "cerebellar": 5721,
      "elb": 5722,
      "gn": 5723,
      "way": 5724,
      "##rs": 5725,
      "##gl": 5726,
      "##utr": 5727,
      "among": 5728,
      "ivf": 5729,
      "warrants": 5730,
      "##carinal": 5731,
      "global": 5732,
      "dc": 5733,
      "dlb": 5734,
      "##aiting": 5735,
      "clust": 5736,
      "nasal": 5737,
      "sites": 5738,
      "effac": 5739,
      "downward": 5740,
      "variceal": 5741,
      "architectural": 5742,
      "##clusive": 5743,
      "elbow": 5744,
      "##**": 5745,
      "posttraum": 5746,
      "denser": 5747,
      "gastrointestinal": 5748,
      "##rodes": 5749,
      "dropping": 5750,
      "##appear": 5751,
      "posttraumatic": 5752,
      "##ric": 5753,
      "##eper": 5754,
      "##tin": 5755,
      "##olitis": 5756,
      "moved": 5757,
      "##osp": 5758,
      "subcarinal": 5759,
      "parox": 5760,
      "predominating": 5761,
      "electrodes": 5762,
      "cordis": 5763,
      "obliteration": 5764,
      "echocardiogram": 5765,
      "penetration": 5766,
      "dislodged": 5767,
      "##utrition": 5768,
      "dlbcl": 5769,
      "eb": 5770,
      "p___": 5771,
      "##ture": 5772,
      "##back": 5773,
      "cannula": 5774,
      "entering": 5775,
      "intrafissural": 5776,
      "ivh": 5777,
      "crossing": 5778,
      "grown": 5779,
      "burning": 5780,
      "anatomic": 5781,
      "##vhd": 5782,
      "midthoracic": 5783,
      "aphasia": 5784,
      ",,": 5785,
      "dy": 5786,
      "##ria": 5787,
      "##mb": 5788,
      "##amm": 5789,
      "unstead": 5790,
      "porta": 5791,
      "##renal": 5792,
      "vision": 5793,
      "myc": 5794,
      "bulk": 5795,
      "trig": 5796,
      "administration": 5797,
      "pseudoane": 5798,
      "conceiv": 5799,
      "ultim": 5800,
      "##ua": 5801,
      "##be": 5802,
      "them": 5803,
      "reporting": 5804,
      "##obacter": 5805,
      "carries": 5806,
      "surger": 5807,
      "##rained": 5808,
      "circumstance": 5809,
      "sbr": 5810,
      "gallstone": 5811,
      "yet": 5812,
      "##uled": 5813,
      "import": 5814,
      "unit": 5815,
      "##iform": 5816,
      "##abl": 5817,
      "##obl": 5818,
      "supra": 5819,
      "accounted": 5820,
      "missed": 5821,
      "paroxys": 5822,
      "pseudoaneurysm": 5823,
      "60": 5824,
      "hu": 5825,
      "outer": 5826,
      "pci": 5827,
      "##iport": 5828,
      "folds": 5829,
      "mediport": 5830,
      "anastomosis": 5831,
      "cartilage": 5832,
      "surgeries": 5833,
      "cycle": 5834,
      "equ": 5835,
      "pes": 5836,
      "disch": 5837,
      "systemic": 5838,
      "nsr": 5839,
      "ruptured": 5840,
      "beginning": 5841,
      "ccu": 5842,
      "code": 5843,
      "ll": 5844,
      "want": 5845,
      "___p": 5846,
      "##change": 5847,
      "endomet": 5848,
      "##ompl": 5849,
      "involves": 5850,
      "filling": 5851,
      "adequately": 5852,
      "bullet": 5853,
      "pedal": 5854,
      "vertical": 5855,
      "tingling": 5856,
      "scheduled": 5857,
      "nh": 5858,
      "wax": 5859,
      "##imated": 5860,
      "paraesophageal": 5861,
      "reintubated": 5862,
      "targeted": 5863,
      "paroxysmal": 5864,
      "discharged": 5865,
      "hol": 5866,
      "##ording": 5867,
      "##strophy": 5868,
      "stairs": 5869,
      "##utation": 5870,
      "##osarcoma": 5871,
      "outlet": 5872,
      "folded": 5873,
      "according": 5874,
      "##odystrophy": 5875,
      "osteodystrophy": 5876,
      "factor": 5877,
      "bol": 5878,
      "cho": 5879,
      "pertin": 5880,
      "remained": 5881,
      "hyperostosis": 5882,
      "provide": 5883,
      "##ortun": 5884,
      "tracheoplasty": 5885,
      "tbm": 5886,
      "marginated": 5887,
      "##layed": 5888,
      "jaw": 5889,
      "pertinent": 5890,
      "##bs": 5891,
      "##iable": 5892,
      "##cet": 5893,
      "upgrade": 5894,
      "endoscopy": 5895,
      "cervic": 5896,
      "peribronchovascular": 5897,
      "dullness": 5898,
      "trapped": 5899,
      "tropon": 5900,
      "##ah": 5901,
      "##tt": 5902,
      "##face": 5903,
      "luq": 5904,
      "evening": 5905,
      "evidenced": 5906,
      "##ostal": 5907,
      "##just": 5908,
      "technologist": 5909,
      "problems": 5910,
      "##arca": 5911,
      "##atically": 5912,
      "##stances": 5913,
      "##enable": 5914,
      "##ulate": 5915,
      "airless": 5916,
      "assisted": 5917,
      "residua": 5918,
      "allerg": 5919,
      "exaggerates": 5920,
      "implantation": 5921,
      "nondedicated": 5922,
      "reevaluate": 5923,
      "pd": 5924,
      "serv": 5925,
      "##radiation": 5926,
      "##ogenous": 5927,
      "##pacity": 5928,
      "persistant": 5929,
      "proximally": 5930,
      "restrictive": 5931,
      "establ": 5932,
      "bru": 5933,
      "don": 5934,
      "py": 5935,
      "contribution": 5936,
      "couple": 5937,
      "abnl": 5938,
      "infected": 5939,
      "readjust": 5940,
      "##iveness": 5941,
      "descends": 5942,
      "##ythe": 5943,
      "symptomatic": 5944,
      "progressively": 5945,
      "bandlike": 5946,
      "thrombus": 5947,
      "hyperdense": 5948,
      "subjacent": 5949,
      "ultimately": 5950,
      "gvhd": 5951,
      "rx": 5952,
      "##olectomy": 5953,
      "##ef": 5954,
      "##eron": 5955,
      "##itant": 5956,
      "isin": 5957,
      "##asarca": 5958,
      "prof": 5959,
      "anasarca": 5960,
      "feeds": 5961,
      "mind": 5962,
      "resolve": 5963,
      "caring": 5964,
      "metal": 5965,
      "inspirational": 5966,
      "quantif": 5967,
      "occasional": 5968,
      "staff": 5969,
      "virtually": 5970,
      "cluster": 5971,
      "grou": 5972,
      "evd": 5973,
      "prev": 5974,
      "iddm": 5975,
      "colostomy": 5976,
      "possibil": 5977,
      "tachycardic": 5978,
      "requesting": 5979,
      "pseudomon": 5980,
      "jaund": 5981,
      "gangl": 5982,
      "inhalation": 5983,
      "subluxation": 5984,
      "mask": 5985,
      "mycobacter": 5986,
      "huge": 5987,
      "br": 5988,
      "solid": 5989,
      "exlap": 5990,
      "scc": 5991,
      "retention": 5992,
      "mucoid": 5993,
      "collected": 5994,
      "unwell": 5995,
      "appendage": 5996,
      "bolus": 5997,
      "cervicothoracic": 5998,
      "jaundice": 5999,
      "##ogast": 6000,
      "##oclavicular": 6001,
      "del": 6002,
      "pulmonic": 6003,
      "prostheses": 6004,
      "termination": 6005,
      "majority": 6006,
      "##proced": 6007,
      "micronodular": 6008,
      "quantiferon": 6009,
      "dem": 6010,
      "ron": 6011,
      "##cx": 6012,
      "##cation": 6013,
      "##ulin": 6014,
      "pneumocyst": 6015,
      "##ardiac": 6016,
      "contents": 6017,
      "hypother": 6018,
      "##dered": 6019,
      "totally": 6020,
      "traversing": 6021,
      "reaching": 6022,
      "pneumocystis": 6023,
      "cns": 6024,
      "set": 6025,
      "tom": 6026,
      "turn": 6027,
      "##fully": 6028,
      "##ref": 6029,
      "retur": 6030,
      "acquisition": 6031,
      "frequency": 6032,
      "hyperdensity": 6033,
      "assesment": 6034,
      "peritracheal": 6035,
      "scale": 6036,
      "reconstruction": 6037,
      "ug": 6038,
      "##ool": 6039,
      "##rol": 6040,
      "##fts": 6041,
      "##axia": 6042,
      "##oparenchymal": 6043,
      "bronchiolitis": 6044,
      "collecting": 6045,
      "worked": 6046,
      "schiz": 6047,
      "nhl": 6048,
      "service": 6049,
      "possibilities": 6050,
      "bka": 6051,
      "van": 6052,
      "##ora": 6053,
      "##rable": 6054,
      "predominately": 6055,
      "magni": 6056,
      "uc": 6057,
      "##ulature": 6058,
      "pleuroparenchymal": 6059,
      "exce": 6060,
      "##ipated": 6061,
      "amio": 6062,
      "amenable": 6063,
      "esophagogast": 6064,
      "needle": 6065,
      "ventilatory": 6066,
      "faintly": 6067,
      "circumstances": 6068,
      "spondylotic": 6069,
      "preferably": 6070,
      "magnif": 6071,
      "dail": 6072,
      "ml": 6073,
      "rs": 6074,
      "wt": 6075,
      "ataxia": 6076,
      "##valve": 6077,
      "postradiation": 6078,
      "aortopulmonary": 6079,
      "peer": 6080,
      "traction": 6081,
      "erythe": 6082,
      "careful": 6083,
      "feels": 6084,
      "nephrostomy": 6085,
      "daily": 6086,
      "bp": 6087,
      "eas": 6088,
      "conclusive": 6089,
      "exchange": 6090,
      "ordered": 6091,
      "pacu": 6092,
      "angina": 6093,
      "pharynx": 6094,
      "confirms": 6095,
      "measure": 6096,
      "accessed": 6097,
      "planning": 6098,
      "awaiting": 6099,
      "modality": 6100,
      "gnr": 6101,
      "ganglia": 6102,
      "times": 6103,
      "##spect": 6104,
      "##rap": 6105,
      "##ficial": 6106,
      "actually": 6107,
      "diuresed": 6108,
      "##laying": 6109,
      "sss": 6110,
      "##lin": 6111,
      "station": 6112,
      "disappear": 6113,
      "##asties": 6114,
      "##oxic": 6115,
      "overloaded": 6116,
      "##pectomy": 6117,
      "strokes": 6118,
      "bike": 6119,
      "root": 6120,
      "interspaces": 6121,
      "herniation": 6122,
      "oropharynx": 6123,
      "scler": 6124,
      "##estr": 6125,
      "##bl": 6126,
      "deeper": 6127,
      "interc": 6128,
      "draining": 6129,
      "segments": 6130,
      "abuts": 6131,
      "vertically": 6132,
      "usually": 6133,
      "osteoarth": 6134,
      "amputation": 6135,
      "tailored": 6136,
      "cbd": 6137,
      "gli": 6138,
      "##get": 6139,
      "##yth": 6140,
      "at___": 6141,
      "temps": 6142,
      "massively": 6143,
      "anticipated": 6144,
      "tachypneic": 6145,
      "mcc": 6146,
      "expiration": 6147,
      "loose": 6148,
      "##oneph": 6149,
      "avoid": 6150,
      "underinflated": 6151,
      "loculations": 6152,
      "afe": 6153,
      "pedestr": 6154,
      "corevalve": 6155,
      "jejunum": 6156,
      "pedestrian": 6157,
      "bent": 6158,
      "##bital": 6159,
      "finally": 6160,
      "stool": 6161,
      "intervally": 6162,
      "presently": 6163,
      "paralysis": 6164,
      "##omycin": 6165,
      "malfunction": 6166,
      "displac": 6167,
      "subtotal": 6168,
      "##rection": 6169,
      "##stri": 6170,
      "##itu": 6171,
      "coming": 6172,
      "verb": 6173,
      "acidosis": 6174,
      "headstri": 6175,
      "maintained": 6176,
      "asbestosis": 6177,
      "interpre": 6178,
      "clamping": 6179,
      "restricted": 6180,
      "discordance": 6181,
      "psych": 6182,
      "conceivably": 6183,
      "headstrike": 6184,
      "##cap": 6185,
      "##jejun": 6186,
      "stated": 6187,
      "##axis": 6188,
      "##asculature": 6189,
      "##ovasculature": 6190,
      "appendic": 6191,
      "tinged": 6192,
      "tendin": 6193,
      "bipap": 6194,
      "afebrile": 6195,
      "##jejunostomy": 6196,
      "waning": 6197,
      "##lithiasis": 6198,
      "reprod": 6199,
      "##ralateral": 6200,
      "advance": 6201,
      "##ullary": 6202,
      "gastrop": 6203,
      "intermedius": 6204,
      "important": 6205,
      "waxing": 6206,
      "bal": 6207,
      "ket": 6208,
      "##oac": 6209,
      "contralateral": 6210,
      "##ernoon": 6211,
      "afternoon": 6212,
      "regression": 6213,
      "accept": 6214,
      "relax": 6215,
      "assum": 6216,
      "referred": 6217,
      "peak": 6218,
      "splenomegaly": 6219,
      "gradual": 6220,
      "thymectomy": 6221,
      "vanc": 6222,
      "dd": 6223,
      "tac": 6224,
      "xr": 6225,
      "##his": 6226,
      "dehis": 6227,
      "ide": 6228,
      "retrospect": 6229,
      "bronchovasculature": 6230,
      "retract": 6231,
      "temporal": 6232,
      "planned": 6233,
      "angiogram": 6234,
      "ronchi": 6235,
      "appendicitis": 6236,
      "aware": 6237,
      "doph": 6238,
      "resor": 6239,
      "hypov": 6240,
      "necrotic": 6241,
      "dramatically": 6242,
      "endometrial": 6243,
      "troponin": 6244,
      "intercostal": 6245,
      "gastroparesis": 6246,
      "dophoff": 6247,
      "dz": 6248,
      "draw": 6249,
      "fasc": 6250,
      "##topenia": 6251,
      "##orrow": 6252,
      "dehydration": 6253,
      "infer": 6254,
      "discl": 6255,
      "##ominate": 6256,
      "worst": 6257,
      "incr": 6258,
      "saturations": 6259,
      "growth": 6260,
      "##ruption": 6261,
      "ingested": 6262,
      "fluoroscopic": 6263,
      "##ospasm": 6264,
      "group": 6265,
      "tomorrow": 6266,
      "esophagogastrectomy": 6267,
      "acceptable": 6268,
      "az": 6269,
      "flap": 6270,
      "nc": 6271,
      "pancy": 6272,
      "interface": 6273,
      "midportion": 6274,
      "redistributed": 6275,
      "##roplasties": 6276,
      "radiolucency": 6277,
      "relaxation": 6278,
      "cied": 6279,
      "hit": 6280,
      "##ilation": 6281,
      "##oling": 6282,
      "parac": 6283,
      "relating": 6284,
      "curve": 6285,
      "##ucible": 6286,
      "sheet": 6287,
      "mixed": 6288,
      "attempts": 6289,
      "##rupt": 6290,
      "anticoagulation": 6291,
      "##oblast": 6292,
      "hypothermia": 6293,
      "glioblast": 6294,
      "gp": 6295,
      "olt": 6296,
      "##ii": 6297,
      "##fib": 6298,
      "often": 6299,
      "endogastric": 6300,
      "abscesses": 6301,
      "distorted": 6302,
      "schedule": 6303,
      "mandible": 6304,
      "bruising": 6305,
      "ketoac": 6306,
      "ketoacidosis": 6307,
      "nj": 6308,
      "stay": 6309,
      "start": 6310,
      "evaluating": 6311,
      "postproced": 6312,
      "##clage": 6313,
      "endovascular": 6314,
      "##pected": 6315,
      "uncompl": 6316,
      "cerclage": 6317,
      "ulcers": 6318,
      "certainty": 6319,
      "peribronchi": 6320,
      "reproducible": 6321,
      "glioblastoma": 6322,
      "uncomplicated": 6323,
      "sct": 6324,
      "##roma": 6325,
      "##ars": 6326,
      "##atric": 6327,
      "histor": 6328,
      "sits": 6329,
      "think": 6330,
      "ipf": 6331,
      "pericardiocentesis": 6332,
      "erythema": 6333,
      "dehiscence": 6334,
      "pancytopenia": 6335,
      "ho": 6336,
      "penum": 6337,
      "sicu": 6338,
      "trem": 6339,
      "tace": 6340,
      "##emb": 6341,
      "uns": 6342,
      "atx": 6343,
      "mod": 6344,
      "##ipation": 6345,
      "resected": 6346,
      "##illary": 6347,
      "relaps": 6348,
      "plane": 6349,
      "##oliotic": 6350,
      "differentiate": 6351,
      "cephalic": 6352,
      "hfref": 6353,
      "reactiv": 6354,
      "extraction": 6355,
      "tolerate": 6356,
      "pi": 6357,
      "compens": 6358,
      "text": 6359,
      "milder": 6360,
      "intervertebral": 6361,
      "##avitary": 6362,
      "hair": 6363,
      "tran": 6364,
      "reportedly": 6365,
      "localization": 6366,
      "desatur": 6367,
      "explains": 6368,
      "##ches": 6369,
      "thrombocyt": 6370,
      "completed": 6371,
      "intoxicated": 6372,
      "hemodynamic": 6373,
      "ccy": 6374,
      "##more": 6375,
      "##tment": 6376,
      "##kal": 6377,
      "example": 6378,
      "viewed": 6379,
      "##oca": 6380,
      "interstial": 6381,
      "approximate": 6382,
      "biopsies": 6383,
      "innominate": 6384,
      "interpreted": 6385,
      "90": 6386,
      "cs": 6387,
      "mail": 6388,
      "##form": 6389,
      "##went": 6390,
      "##arc": 6391,
      "##isy": 6392,
      "##nife": 6393,
      "evala": 6394,
      "underwent": 6395,
      "added": 6396,
      "combines": 6397,
      "intracavitary": 6398,
      "##chondroma": 6399,
      "hemodynamically": 6400,
      "effacement": 6401,
      "historian": 6402,
      "ach": 6403,
      "centr": 6404,
      "list": 6405,
      "used": 6406,
      "##ued": 6407,
      "hemic": 6408,
      "assessing": 6409,
      "caval": 6410,
      "ambulation": 6411,
      "cyber": 6412,
      "disappeared": 6413,
      "peribronchiolar": 6414,
      "phe": 6415,
      "##np": 6416,
      "##ited": 6417,
      "comparing": 6418,
      "uniform": 6419,
      "##ignific": 6420,
      "avid": 6421,
      "distance": 6422,
      "gallbl": 6423,
      "connected": 6424,
      "##ignificant": 6425,
      "gallbladder": 6426,
      "##sub": 6427,
      "radiologic": 6428,
      "##inations": 6429,
      "destructive": 6430,
      "catheterization": 6431,
      "corac": 6432,
      "attn": 6433,
      "meant": 6434,
      "brachial": 6435,
      "iii": 6436,
      "cultures": 6437,
      "ebus": 6438,
      "p___w": 6439,
      "fam": 6440,
      "give": 6441,
      "hic": 6442,
      "##oke": 6443,
      "stap": 6444,
      "frx": 6445,
      "##utic": 6446,
      "enc": 6447,
      "##osing": 6448,
      "readmitted": 6449,
      "nonc": 6450,
      "smoke": 6451,
      "fundopl": 6452,
      "cardioversion": 6453,
      "child": 6454,
      "reactivation": 6455,
      "svt": 6456,
      "##ply": 6457,
      "##ilobular": 6458,
      "compartment": 6459,
      "##atectomy": 6460,
      "pop": 6461,
      "##ectomies": 6462,
      "anoxic": 6463,
      "manub": 6464,
      "working": 6465,
      "confused": 6466,
      "insignificant": 6467,
      "afl": 6468,
      "oxygenation": 6469,
      "halluc": 6470,
      "purp": 6471,
      "anastomotic": 6472,
      "straight": 6473,
      "centrilobular": 6474,
      "fundoplication": 6475,
      "mt": 6476,
      "##cious": 6477,
      "##ssage": 6478,
      "pneumat": 6479,
      "pock": 6480,
      "midclav": 6481,
      "walls": 6482,
      "message": 6483,
      "optim": 6484,
      "necrosis": 6485,
      "clarification": 6486,
      "unresponsiveness": 6487,
      "##ietal": 6488,
      "discontinuity": 6489,
      "##ocele": 6490,
      "initiation": 6491,
      "paralleling": 6492,
      "osteoarthritis": 6493,
      "bentall": 6494,
      "meantime": 6495,
      "hiccu": 6496,
      "pocket": 6497,
      "hick": 6498,
      "##knife": 6499,
      "##onal": 6500,
      "noon": 6501,
      "##ortic": 6502,
      "simply": 6503,
      "referrable": 6504,
      "mesenteric": 6505,
      "volv": 6506,
      "unsteady": 6507,
      "hallucinations": 6508,
      "%.": 6509,
      "rue": 6510,
      "##na": 6511,
      "##ario": 6512,
      "##orous": 6513,
      "##enario": 6514,
      "##omitant": 6515,
      "poc": 6516,
      "adrenal": 6517,
      "concomitant": 6518,
      "scenario": 6519,
      "maln": 6520,
      "tracks": 6521,
      "monitored": 6522,
      "essential": 6523,
      "complains": 6524,
      "repeating": 6525,
      "adjusted": 6526,
      "pneumatocele": 6527,
      "host": 6528,
      "##onitis": 6529,
      "##ococ": 6530,
      "wegen": 6531,
      "oblong": 6532,
      "reflection": 6533,
      "concerned": 6534,
      "patent": 6535,
      "strep": 6536,
      "amounts": 6537,
      "raised": 6538,
      "chemora": 6539,
      "fossa": 6540,
      "problem": 6541,
      "tapered": 6542,
      "circulation": 6543,
      "physiology": 6544,
      "evalaute": 6545,
      "cyberknife": 6546,
      "staple": 6547,
      "hiccups": 6548,
      "hickman": 6549,
      "??": 6550,
      "##rape": 6551,
      "cardipulm": 6552,
      "exclusion": 6553,
      "##osc": 6554,
      "legion": 6555,
      "swallowed": 6556,
      "autoim": 6557,
      "malnutrition": 6558,
      ".)": 6559,
      "ey": 6560,
      "##lec": 6561,
      "thigh": 6562,
      "diure": 6563,
      "expanding": 6564,
      "tracheomalacia": 6565,
      "heterogenous": 6566,
      "panc": 6567,
      "diameters": 6568,
      "events": 6569,
      "unexpected": 6570,
      "obliterating": 6571,
      "missing": 6572,
      "flushing": 6573,
      "aflutter": 6574,
      "volvulus": 6575,
      "au": 6576,
      "gb": 6577,
      "ta": 6578,
      "##rate": 6579,
      "##nition": 6580,
      "stress": 6581,
      "##ipital": 6582,
      "alter": 6583,
      "enchondroma": 6584,
      "admit": 6585,
      "expect": 6586,
      "supple": 6587,
      "adenoca": 6588,
      "clamp": 6589,
      "excision": 6590,
      "penetrated": 6591,
      "estimated": 6592,
      "mesh": 6593,
      "bifur": 6594,
      "pseudomonas": 6595,
      "thrombocytopenia": 6596,
      "##rapeutic": 6597,
      "autoimmune": 6598,
      "bnp": 6599,
      "niss": 6600,
      "##sw": 6601,
      "##lig": 6602,
      "unst": 6603,
      "##cardiogenic": 6604,
      "dysarth": 6605,
      "urg": 6606,
      "orthost": 6607,
      "infarcts": 6608,
      "discontinuation": 6609,
      "gallstones": 6610,
      "produce": 6611,
      "walking": 6612,
      "holds": 6613,
      "magnified": 6614,
      "easily": 6615,
      "diuretic": 6616,
      "nissen": 6617,
      "dysarthria": 6618,
      "mat": 6619,
      "##pr": 6620,
      "##omed": 6621,
      "loa": 6622,
      "asp": 6623,
      "alz": 6624,
      "span": 6625,
      "moreover": 6626,
      "eleventh": 6627,
      "noncardiogenic": 6628,
      "informed": 6629,
      "##eled": 6630,
      "##ocytic": 6631,
      "neutral": 6632,
      "whereas": 6633,
      "hypertrophy": 6634,
      "heroin": 6635,
      "lipoma": 6636,
      "ectasia": 6637,
      "tpc": 6638,
      "spondylosis": 6639,
      "skinf": 6640,
      "pregnant": 6641,
      "p___wet": 6642,
      "park": 6643,
      "##nic": 6644,
      "##entilation": 6645,
      "##lysis": 6646,
      "normalized": 6647,
      "inflation": 6648,
      "scoliotic": 6649,
      "##astrium": 6650,
      "patch": 6651,
      "reasonably": 6652,
      "alongside": 6653,
      "greatly": 6654,
      "epigastrium": 6655,
      "operatively": 6656,
      "situated": 6657,
      "pseudocyst": 6658,
      "officer": 6659,
      "sleep": 6660,
      "##ocrine": 6661,
      "constipation": 6662,
      "donor": 6663,
      "mycobacterial": 6664,
      "urgency": 6665,
      ",.": 6666,
      "cres": 6667,
      "hl": 6668,
      "##bx": 6669,
      "##hing": 6670,
      "instr": 6671,
      "##diaph": 6672,
      "##nshot": 6673,
      "needing": 6674,
      "crash": 6675,
      "desatting": 6676,
      "closely": 6677,
      "bulb": 6678,
      "instability": 6679,
      "manifested": 6680,
      "recognition": 6681,
      "gunshot": 6682,
      "pulse": 6683,
      "bipolar": 6684,
      "circular": 6685,
      "cavitated": 6686,
      "sometimes": 6687,
      "bulky": 6688,
      "unstable": 6689,
      "mamm": 6690,
      "rosc": 6691,
      "##cular": 6692,
      "enough": 6693,
      "##llular": 6694,
      "incar": 6695,
      "reached": 6696,
      "paramedian": 6697,
      "##ocellular": 6698,
      "hepatocellular": 6699,
      "family": 6700,
      "mg": 6701,
      "ut": 6702,
      "vac": 6703,
      "wob": 6704,
      "##yn": 6705,
      "##pine": 6706,
      "##itting": 6707,
      "inr": 6708,
      "##rost": 6709,
      "states": 6710,
      "##opulm": 6711,
      "thal": 6712,
      "##cluding": 6713,
      "visc": 6714,
      "questions": 6715,
      "association": 6716,
      "medic": 6717,
      "correlating": 6718,
      "bronchogram": 6719,
      "suboptimally": 6720,
      "sleeve": 6721,
      "radiopacity": 6722,
      "iliac": 6723,
      "chemoradiation": 6724,
      "legionella": 6725,
      "alzhe": 6726,
      "(?": 6727,
      ".\"": 6728,
      "laryngeal": 6729,
      "sal": 6730,
      "uter": 6731,
      "##och": 6732,
      "##hep": 6733,
      "pericardium": 6734,
      "maybe": 6735,
      "##cluded": 6736,
      "hypers": 6737,
      "##hood": 6738,
      "phrenic": 6739,
      "shifting": 6740,
      "tbbx": 6741,
      "##namic": 6742,
      "inclusions": 6743,
      "mar": 6744,
      "men": 6745,
      "pleurisy": 6746,
      "apnea": 6747,
      "orbital": 6748,
      "conscious": 6749,
      "##ectasis": 6750,
      "##irub": 6751,
      "splaying": 6752,
      "foll": 6753,
      "walled": 6754,
      "metab": 6755,
      "absent": 6756,
      "acromio": 6757,
      "determination": 6758,
      "physiologic": 6759,
      "choking": 6760,
      "medicine": 6761,
      "alzheim": 6762,
      "mur": 6763,
      "mim": 6764,
      "##ival": 6765,
      "##tre": 6766,
      "##icin": 6767,
      "unre": 6768,
      "anti": 6769,
      "##abine": 6770,
      "##endocrine": 6771,
      "dependence": 6772,
      "screen": 6773,
      "thrombectomy": 6774,
      "ecg": 6775,
      "upwards": 6776,
      "neuroendocrine": 6777,
      "interlobar": 6778,
      "##onephritis": 6779,
      "resorption": 6780,
      "relapsed": 6781,
      "taper": 6782,
      "skinfold": 6783,
      "##oder": 6784,
      "##ata": 6785,
      "toget": 6786,
      "##ograft": 6787,
      "##lux": 6788,
      "##chym": 6789,
      "##obectomy": 6790,
      "reasonable": 6791,
      "relation": 6792,
      "falling": 6793,
      "discoid": 6794,
      "pressors": 6795,
      "immunosuppress": 6796,
      "spleen": 6797,
      "running": 6798,
      "omr": 6799,
      "ugib": 6800,
      "unsuc": 6801,
      "wegener": 6802,
      "incarcer": 6803,
      "hypersens": 6804,
      "##irubin": 6805,
      "follicular": 6806,
      "together": 6807,
      "hb": 6808,
      "txp": 6809,
      "##ven": 6810,
      "conver": 6811,
      "##othoraces": 6812,
      "portac": 6813,
      "defic": 6814,
      "coli": 6815,
      "##rhyth": 6816,
      "caud": 6817,
      "rhonch": 6818,
      "##reteral": 6819,
      "diverticul": 6820,
      "anatomy": 6821,
      "radical": 6822,
      "metabolic": 6823,
      "unsuccess": 6824,
      "colum": 6825,
      "covered": 6826,
      "morg": 6827,
      "##au": 6828,
      "##mur": 6829,
      "##omas": 6830,
      "really": 6831,
      "##iscule": 6832,
      "impacted": 6833,
      "decl": 6834,
      "intervening": 6835,
      "miniscule": 6836,
      "bronchospasm": 6837,
      "doboff": 6838,
      "supportive": 6839,
      "bronchiectatic": 6840,
      "cysts": 6841,
      "accumulating": 6842,
      "micro": 6843,
      "amyloid": 6844,
      "driver": 6845,
      "##kalemia": 6846,
      "murmur": 6847,
      "hypersensitivity": 6848,
      "70": 6849,
      "pin": 6850,
      "##ioma": 6851,
      "##alasia": 6852,
      "aps": 6853,
      "lobular": 6854,
      "lobulation": 6855,
      "evalute": 6856,
      "disruption": 6857,
      "word": 6858,
      "##aves": 6859,
      "##rown": 6860,
      "progress": 6861,
      "speed": 6862,
      "passed": 6863,
      "hematuria": 6864,
      "rhin": 6865,
      "polysub": 6866,
      "neuropathy": 6867,
      "coarseness": 6868,
      "levoc": 6869,
      "intended": 6870,
      "carcinoid": 6871,
      "paraple": 6872,
      "peritonitis": 6873,
      "allergic": 6874,
      "verbally": 6875,
      "achalasia": 6876,
      "portacath": 6877,
      "##ave": 6878,
      "##tal": 6879,
      "##humeral": 6880,
      "paf": 6881,
      "pads": 6882,
      "direction": 6883,
      "obtaining": 6884,
      "earliest": 6885,
      "##wered": 6886,
      "chemical": 6887,
      "dmii": 6888,
      "ecchym": 6889,
      "intersitial": 6890,
      "##cxr": 6891,
      "parkins": 6892,
      "polysubstance": 6893,
      "caps": 6894,
      "put": 6895,
      "##uit": 6896,
      "##utes": 6897,
      "##matic": 6898,
      "##rees": 6899,
      "##itabine": 6900,
      "comprom": 6901,
      "##phrenic": 6902,
      "##rob": 6903,
      "imping": 6904,
      "front": 6905,
      "select": 6906,
      "appet": 6907,
      "clinician": 6908,
      "##ensitive": 6909,
      "broncho": 6910,
      "supp": 6911,
      "fluct": 6912,
      "urine": 6913,
      "usual": 6914,
      "midclavicular": 6915,
      "##hepatic": 6916,
      "consciousness": 6917,
      "lve": 6918,
      "nine": 6919,
      "od": 6920,
      "rp": 6921,
      "##elo": 6922,
      "##nf": 6923,
      "##lc": 6924,
      "isol": 6925,
      "pneumost": 6926,
      "chn": 6927,
      "##opic": 6928,
      "contain": 6929,
      "feature": 6930,
      "identif": 6931,
      "##imum": 6932,
      "hyperv": 6933,
      "hypercal": 6934,
      "worsen": 6935,
      "flexion": 6936,
      "rigid": 6937,
      "secured": 6938,
      "entity": 6939,
      "amyloidosis": 6940,
      "staged": 6941,
      "exceeding": 6942,
      "azith": 6943,
      "postprocedural": 6944,
      "gbm": 6945,
      "spanning": 6946,
      "instrument": 6947,
      "acromiohumeral": 6948,
      "lvef": 6949,
      "dyst": 6950,
      "##ges": 6951,
      "recess": 6952,
      "##nging": 6953,
      "##cectomy": 6954,
      "inde": 6955,
      "##ette": 6956,
      "atal": 6957,
      "cardiomeg": 6958,
      "midsternal": 6959,
      "parast": 6960,
      "arri": 6961,
      "sternoclavicular": 6962,
      "##renia": 6963,
      "avm": 6964,
      "##othro": 6965,
      "transc": 6966,
      "lymphatic": 6967,
      "meds": 6968,
      "pulmon": 6969,
      "operation": 6970,
      "interposed": 6971,
      "conduit": 6972,
      "responsive": 6973,
      "quantity": 6974,
      "exploration": 6975,
      "branch": 6976,
      "bifurcation": 6977,
      "uterine": 6978,
      ".--": 6979,
      "sia": 6980,
      "##com": 6981,
      "##iton": 6982,
      "##istaxis": 6983,
      "##lectasis": 6984,
      "agent": 6985,
      "strid": 6986,
      "retroperitoneal": 6987,
      "insensitive": 6988,
      "medication": 6989,
      "involved": 6990,
      "neurologic": 6991,
      "denot": 6992,
      "investigation": 6993,
      "osteophytic": 6994,
      "paraplegia": 6995,
      "hypercalcemia": 6996,
      "##othroax": 6997,
      "tur": 6998,
      "vicin": 6999,
      "##iff": 7000,
      "##leural": 7001,
      "revers": 7002,
      "##umb": 7003,
      "lue": 7004,
      "evar": 7005,
      "seeds": 7006,
      "atelec": 7007,
      "clog": 7008,
      "##osum": 7009,
      "remic": 7010,
      "parietal": 7011,
      "##yspl": 7012,
      "hemidiaph": 7013,
      "pract": 7014,
      "distant": 7015,
      "anymore": 7016,
      "appreciate": 7017,
      "epistaxis": 7018,
      "health": 7019,
      "##cephalus": 7020,
      "headaches": 7021,
      "blebs": 7022,
      "hodgkins": 7023,
      "dramatic": 7024,
      "answered": 7025,
      "equival": 7026,
      "brb": 7027,
      "##rosthe": 7028,
      "unsuccessful": 7029,
      "apsingle": 7030,
      "atalectasis": 7031,
      "vicinity": 7032,
      "brown": 7033,
      "mem": 7034,
      "##irect": 7035,
      "##wing": 7036,
      "exchanged": 7037,
      "lost": 7038,
      "##amic": 7039,
      "examined": 7040,
      "weaning": 7041,
      "##outh": 7042,
      "##ivered": 7043,
      "concerns": 7044,
      "copious": 7045,
      "plav": 7046,
      "melen": 7047,
      "crt": 7048,
      "whiteout": 7049,
      "investigated": 7050,
      "delivered": 7051,
      "discloses": 7052,
      "gpc": 7053,
      "crescent": 7054,
      "menis": 7055,
      "levoconvex": 7056,
      "chnage": 7057,
      "brough": 7058,
      "gro": 7059,
      "tong": 7060,
      "vf": 7061,
      "##edema": 7062,
      "##resol": 7063,
      "control": 7064,
      "abrupt": 7065,
      "ctx": 7066,
      "##gment": 7067,
      "aortopulm": 7068,
      "shaking": 7069,
      "##ophrenia": 7070,
      "intract": 7071,
      "settings": 7072,
      "cpr": 7073,
      "unfortun": 7074,
      "gastrojejunostomy": 7075,
      "embolic": 7076,
      "looping": 7077,
      "burden": 7078,
      "readjusted": 7079,
      "inferolateral": 7080,
      "compensatory": 7081,
      "eye": 7082,
      "visceral": 7083,
      "column": 7084,
      "siadh": 7085,
      "stridor": 7086,
      "equivalent": 7087,
      "plavix": 7088,
      "brought": 7089,
      "aortopulmonic": 7090,
      "creat": 7091,
      "kub": 7092,
      "stone": 7093,
      "loven": 7094,
      "subq": 7095,
      "adhe": 7096,
      "arrhyth": 7097,
      "degener": 7098,
      "hydration": 7099,
      "reaccumulated": 7100,
      "dimer": 7101,
      "anatomical": 7102,
      "cranially": 7103,
      "gradually": 7104,
      "cavitating": 7105,
      "pyel": 7106,
      "schizophrenia": 7107,
      "##oderma": 7108,
      "appetite": 7109,
      "unfortunately": 7110,
      "lovenox": 7111,
      "gsw": 7112,
      "mouth": 7113,
      "ureteral": 7114,
      "##rum": 7115,
      "##ventricular": 7116,
      "##omatous": 7117,
      "nose": 7118,
      "##eth": 7119,
      "prevascular": 7120,
      "##alyzed": 7121,
      "##odyspl": 7122,
      "degrees": 7123,
      "mycop": 7124,
      "explaining": 7125,
      "occipital": 7126,
      "effectively": 7127,
      "crohns": 7128,
      "myalgia": 7129,
      "herniated": 7130,
      "branching": 7131,
      "exceedingly": 7132,
      "tongue": 7133,
      "bri": 7134,
      "ftt": 7135,
      "##df": 7136,
      "##vant": 7137,
      "##arte": 7138,
      "ing": 7139,
      "exud": 7140,
      "reflux": 7141,
      "haart": 7142,
      "centralized": 7143,
      "acdf": 7144,
      "gram": 7145,
      "##olemia": 7146,
      "myelodyspl": 7147,
      "establish": 7148,
      "hypoventilation": 7149,
      "optimized": 7150,
      "brief": 7151,
      "dema": 7152,
      "##pa": 7153,
      "##ssion": 7154,
      "##asma": 7155,
      "ord": 7156,
      "##occ": 7157,
      "delayed": 7158,
      "simple": 7159,
      "transluc": 7160,
      "hemithoraces": 7161,
      "intrapulm": 7162,
      "asthmatic": 7163,
      "extremities": 7164,
      "obliquely": 7165,
      "trip": 7166,
      "evacuated": 7167,
      "lady": 7168,
      "testicular": 7169,
      "hypercarbia": 7170,
      "aspergillosis": 7171,
      "displacing": 7172,
      "isolated": 7173,
      "remicade": 7174,
      "fb": 7175,
      "hs": 7176,
      "rr": 7177,
      "trou": 7178,
      "##ched": 7179,
      "##edown": 7180,
      "##nes": 7181,
      "##ottic": 7182,
      "cardia": 7183,
      "locule": 7184,
      "asd": 7185,
      "proven": 7186,
      "accidental": 7187,
      "fibros": 7188,
      "speaking": 7189,
      "allogenic": 7190,
      "takedown": 7191,
      "cef": 7192,
      "obviously": 7193,
      "comments": 7194,
      "quantify": 7195,
      "appendectomy": 7196,
      "cutaneous": 7197,
      "safely": 7198,
      "accordingly": 7199,
      "demarc": 7200,
      "alzheimer": 7201,
      "pneumostat": 7202,
      "pyelonephritis": 7203,
      "trouble": 7204,
      "bot": 7205,
      "duration": 7206,
      "gj": 7207,
      "##cle": 7208,
      "##pha": 7209,
      "impella": 7210,
      "unrest": 7211,
      "endarte": 7212,
      "bronchoscopic": 7213,
      "apically": 7214,
      "dysp": 7215,
      "##ptal": 7216,
      "intermittently": 7217,
      "rhabd": 7218,
      "occluded": 7219,
      "hydrocephalus": 7220,
      "elective": 7221,
      "nephropathy": 7222,
      "capture": 7223,
      "contributes": 7224,
      "opposed": 7225,
      "osteophytosis": 7226,
      "##ocaval": 7227,
      "thalamic": 7228,
      "morgagni": 7229,
      "brbpr": 7230,
      "ordinary": 7231,
      "unrestrained": 7232,
      "dop": 7233,
      "rl": 7234,
      "rim": 7235,
      "sv": 7236,
      "umb": 7237,
      "##lastic": 7238,
      "##ilical": 7239,
      "##lder": 7240,
      "##resis": 7241,
      "##ibility": 7242,
      "##ositis": 7243,
      "canal": 7244,
      "hyperkalemia": 7245,
      "##infection": 7246,
      "crowd": 7247,
      "roux": 7248,
      "withdrawing": 7249,
      "beneficial": 7250,
      "diuresing": 7251,
      "delineation": 7252,
      "roof": 7253,
      "accurate": 7254,
      "angioedema": 7255,
      "marginally": 7256,
      "interlobular": 7257,
      "scleroderma": 7258,
      "desaturating": 7259,
      "melena": 7260,
      "demand": 7261,
      "fibrosing": 7262,
      "ejection": 7263,
      "gir": 7264,
      "rca": 7265,
      "##aff": 7266,
      "rejection": 7267,
      "leaves": 7268,
      "##aryng": 7269,
      "##ographic": 7270,
      "eva": 7271,
      "unav": 7272,
      "lift": 7273,
      "spur": 7274,
      "picture": 7275,
      "know": 7276,
      "flail": 7277,
      "myelo": 7278,
      "cholelithiasis": 7279,
      "depressed": 7280,
      "##oplastic": 7281,
      "bullectomy": 7282,
      "functioning": 7283,
      "##monia": 7284,
      "capping": 7285,
      "labeled": 7286,
      "returning": 7287,
      "adhesion": 7288,
      "unavailable": 7289,
      "bc": 7290,
      "fing": 7291,
      "tim": 7292,
      "##rogen": 7293,
      "##ope": 7294,
      "als": 7295,
      "manip": 7296,
      "hemip": 7297,
      "##cycle": 7298,
      "documents": 7299,
      "uncont": 7300,
      "episodic": 7301,
      "accumulated": 7302,
      "costodiaphragmatic": 7303,
      "introduced": 7304,
      "craniectomy": 7305,
      "labored": 7306,
      "takeback": 7307,
      "pnuem": 7308,
      "tibial": 7309,
      "objects": 7310,
      "cycl": 7311,
      "something": 7312,
      "##glottic": 7313,
      "hemicolectomy": 7314,
      "deficits": 7315,
      "got": 7316,
      "lfts": 7317,
      "##eved": 7318,
      "##alveolar": 7319,
      "##ili": 7320,
      "##rans": 7321,
      "miliary": 7322,
      "alpha": 7323,
      "##osite": 7324,
      "phase": 7325,
      "intraoperative": 7326,
      "pointed": 7327,
      "pneu": 7328,
      "crepit": 7329,
      "profound": 7330,
      "hoars": 7331,
      "manubrium": 7332,
      "##rosthetic": 7333,
      "intractable": 7334,
      "demarcated": 7335,
      "endarterectomy": 7336,
      ",?": 7337,
      "iat": 7338,
      "len": 7339,
      "ostomy": 7340,
      "ss": 7341,
      "tort": 7342,
      "##inous": 7343,
      "consisting": 7344,
      "##ants": 7345,
      "placem": 7346,
      "placment": 7347,
      "identical": 7348,
      "##pend": 7349,
      "osteopor": 7350,
      "motorcycle": 7351,
      "revealing": 7352,
      "parahilar": 7353,
      "transfusions": 7354,
      "rsv": 7355,
      "ecchymosis": 7356,
      "clogged": 7357,
      "groin": 7358,
      "##rogenic": 7359,
      "iatrogenic": 7360,
      "nd": 7361,
      "vide": 7362,
      "##ire": 7363,
      "##orph": 7364,
      "excess": 7365,
      "limb": 7366,
      "changing": 7367,
      "perif": 7368,
      "splin": 7369,
      "calf": 7370,
      "scr": 7371,
      "superinfection": 7372,
      "atriocaval": 7373,
      "##ximab": 7374,
      "increasingly": 7375,
      "product": 7376,
      "##thing": 7377,
      "community": 7378,
      "##ogeneity": 7379,
      "breasts": 7380,
      "curves": 7381,
      "doubtful": 7382,
      "arthroplasties": 7383,
      "circumfe": 7384,
      "presyncopal": 7385,
      "spiked": 7386,
      "spared": 7387,
      "labs": 7388,
      "meningioma": 7389,
      "##----": 7390,
      "->": 7391,
      "cog": 7392,
      "dental": 7393,
      "sclc": 7394,
      "tka": 7395,
      "##vis": 7396,
      "##lasma": 7397,
      "##pulmonary": 7398,
      "orific": 7399,
      "proved": 7400,
      "contained": 7401,
      "nodal": 7402,
      "##quin": 7403,
      "color": 7404,
      "liters": 7405,
      "layers": 7406,
      "cpap": 7407,
      "spike": 7408,
      "##omedial": 7409,
      "incarcerated": 7410,
      "diverticulum": 7411,
      "compromise": 7412,
      "mycoplasma": 7413,
      "splinting": 7414,
      "orifice": 7415,
      "ficu": 7416,
      "mural": 7417,
      "pc": 7418,
      "vo": 7419,
      "vas": 7420,
      "##omer": 7421,
      "perc": 7422,
      "subglottic": 7423,
      "##ultation": 7424,
      "spect": 7425,
      "scene": 7426,
      "approx": 7427,
      "nodosum": 7428,
      "##oster": 7429,
      "bronchogenic": 7430,
      "viscus": 7431,
      "decr": 7432,
      "takes": 7433,
      "indeterminant": 7434,
      "locally": 7435,
      "localiz": 7436,
      "biopsied": 7437,
      "fungemia": 7438,
      "undere": 7439,
      "myelodysplastic": 7440,
      "svg": 7441,
      "uncontrolled": 7442,
      "hh": 7443,
      "tk": 7444,
      "tral": 7445,
      "zoster": 7446,
      "##itry": 7447,
      "##tem": 7448,
      "chb": 7449,
      "##ription": 7450,
      "##ontine": 7451,
      "entr": 7452,
      "terminal": 7453,
      "cmv": 7454,
      "conform": 7455,
      "veil": 7456,
      "104": 7457,
      "assy": 7458,
      "supported": 7459,
      "crack": 7460,
      "irregularities": 7461,
      "##psin": 7462,
      "##hesias": 7463,
      "tpn": 7464,
      "constell": 7465,
      "reversal": 7466,
      "crepitus": 7467,
      "video": 7468,
      "trali": 7469,
      "acet": 7470,
      "##ira": 7471,
      "##orrhea": 7472,
      "immune": 7473,
      "pager": 7474,
      "delay": 7475,
      "##ibular": 7476,
      "alc": 7477,
      "clos": 7478,
      "hemiarth": 7479,
      "##avior": 7480,
      "##lox": 7481,
      "anything": 7482,
      "esophagram": 7483,
      "heterogeneity": 7484,
      "pectoralis": 7485,
      "maze": 7486,
      "approaching": 7487,
      "##uodenal": 7488,
      "distorts": 7489,
      "ligation": 7490,
      "behavior": 7491,
      "ossific": 7492,
      "pregnancy": 7493,
      "fluctu": 7494,
      "meniscus": 7495,
      "closer": 7496,
      "cat": 7497,
      "elder": 7498,
      "jv": 7499,
      "witnessed": 7500,
      "##lob": 7501,
      "##ased": 7502,
      "compan": 7503,
      "replac": 7504,
      "##lyc": 7505,
      "stop": 7506,
      "beli": 7507,
      "bilirubin": 7508,
      "spot": 7509,
      "shortly": 7510,
      "wider": 7511,
      "ventricles": 7512,
      "fibrous": 7513,
      "brachy": 7514,
      "irregularly": 7515,
      "scatter": 7516,
      "arthral": 7517,
      "dislocated": 7518,
      "alcoholism": 7519,
      "retracting": 7520,
      "orthostatic": 7521,
      "hbv": 7522,
      "parkinsons": 7523,
      "rlq": 7524,
      "elderly": 7525,
      "ln": 7526,
      "lysis": 7527,
      "ritu": 7528,
      "ts": 7529,
      "ws": 7530,
      "##aortic": 7531,
      "##duodenal": 7532,
      "##iph": 7533,
      "##racted": 7534,
      "##xn": 7535,
      "##ulates": 7536,
      "##iably": 7537,
      "come": 7538,
      "strad": 7539,
      "excluding": 7540,
      "##aseptal": 7541,
      "infra": 7542,
      "subm": 7543,
      "paraseptal": 7544,
      "arf": 7545,
      "reasons": 7546,
      "transp": 7547,
      "cavities": 7548,
      "difficulties": 7549,
      "esophagitis": 7550,
      "attack": 7551,
      "systems": 7552,
      "banding": 7553,
      "delineate": 7554,
      "encephalitis": 7555,
      "successfully": 7556,
      "eosinophilia": 7557,
      "staph": 7558,
      "fluoroscopy": 7559,
      "aspergillus": 7560,
      "opportun": 7561,
      "producing": 7562,
      "parallel": 7563,
      "culture": 7564,
      "trigger": 7565,
      "established": 7566,
      "diuretics": 7567,
      "converted": 7568,
      "hoarseness": 7569,
      "spectrum": 7570,
      "entry": 7571,
      "ao": 7572,
      "hone": 7573,
      "rd": 7574,
      "##nitive": 7575,
      "##rene": 7576,
      "##otopic": 7577,
      "pap": 7578,
      "##ethe": 7579,
      "unch": 7580,
      "abr": 7581,
      "##osi": 7582,
      "##ualization": 7583,
      "displayed": 7584,
      "insulin": 7585,
      "quadri": 7586,
      "procedures": 7587,
      "antitry": 7588,
      "restrained": 7589,
      "ileoce": 7590,
      "carefully": 7591,
      "rings": 7592,
      "psor": 7593,
      "greate": 7594,
      "young": 7595,
      "gangrene": 7596,
      "assistant": 7597,
      "trapping": 7598,
      "sacral": 7599,
      "llq": 7600,
      "transcatheter": 7601,
      "creatin": 7602,
      "osteoporosis": 7603,
      "constellation": 7604,
      "brachycephalic": 7605,
      "antitrypsin": 7606,
      "!!": 7607,
      "ok": 7608,
      "olig": 7609,
      "pnd": 7610,
      "pontine": 7611,
      "ton": 7612,
      "vw": 7613,
      "##sh": 7614,
      "##atin": 7615,
      "##acin": 7616,
      "exerc": 7617,
      "upload": 7618,
      "##ectal": 7619,
      "##ipped": 7620,
      "clipping": 7621,
      "##loy": 7622,
      "##dles": 7623,
      "wounds": 7624,
      "urgently": 7625,
      "multilobar": 7626,
      "returns": 7627,
      "fasci": 7628,
      "cspine": 7629,
      "indeed": 7630,
      "finger": 7631,
      "gut": 7632,
      "hum": 7633,
      "pound": 7634,
      "ten": 7635,
      "##fl": 7636,
      "##bb": 7637,
      "##bal": 7638,
      "##zing": 7639,
      "##zone": 7640,
      "rever": 7641,
      "reverse": 7642,
      "##ouch": 7643,
      "##nection": 7644,
      "comes": 7645,
      "compressed": 7646,
      "##lytic": 7647,
      "load": 7648,
      "##ediast": 7649,
      "##ontrast": 7650,
      "##creases": 7651,
      "subchondral": 7652,
      "dig": 7653,
      "##trate": 7654,
      "nodulation": 7655,
      "##osterior": 7656,
      "aca": 7657,
      "intral": 7658,
      "##coast": 7659,
      "prominently": 7660,
      "intraabdominal": 7661,
      "##moker": 7662,
      "lumpectomy": 7663,
      "fibrothorax": 7664,
      "granulomatosis": 7665,
      "hydropneum": 7666,
      "bandemia": 7667,
      "immunosuppressive": 7668,
      "intracardiac": 7669,
      "##hesia": 7670,
      "##ycom": 7671,
      "drawing": 7672,
      "paracentesis": 7673,
      "rhonchorous": 7674,
      "rhinorrhea": 7675,
      "hemiarthroplasty": 7676,
      "transparent": 7677,
      "honeycom": 7678,
      "abrasion": 7679,
      "greatest": 7680,
      "creatinine": 7681,
      "tonight": 7682,
      "du": 7683,
      "ig": 7684,
      "por": 7685,
      "sol": 7686,
      "yom": 7687,
      "##lor": 7688,
      "##align": 7689,
      "##itated": 7690,
      "reli": 7691,
      "stump": 7692,
      "exper": 7693,
      "##oposterior": 7694,
      "lik": 7695,
      "ascertain": 7696,
      "##ipl": 7697,
      "peristent": 7698,
      "sust": 7699,
      "postp": 7700,
      "placing": 7701,
      "shrap": 7702,
      "mini": 7703,
      "medications": 7704,
      "##kley": 7705,
      "ica": 7706,
      "discon": 7707,
      "precip": 7708,
      "psc": 7709,
      "gastr": 7710,
      "anastam": 7711,
      "##undant": 7712,
      "tibia": 7713,
      "saccular": 7714,
      "tremors": 7715,
      "##ococcal": 7716,
      "crescentic": 7717,
      "arrhythmia": 7718,
      "perifissural": 7719,
      "localizes": 7720,
      "uploaded": 7721,
      "shrapnel": 7722,
      "mpe": 7723,
      "overe": 7724,
      "yr": 7725,
      "##ae": 7726,
      "##ny": 7727,
      "of___": 7728,
      "##ffee": 7729,
      "repo": 7730,
      "exac": 7731,
      "unresol": 7732,
      "mos": 7733,
      "suic": 7734,
      "feet": 7735,
      "spir": 7736,
      "##ensities": 7737,
      "confident": 7738,
      "angulated": 7739,
      "nonethe": 7740,
      "coffee": 7741,
      "firing": 7742,
      "##artum": 7743,
      "extrav": 7744,
      "elements": 7745,
      "effective": 7746,
      "reevaluation": 7747,
      "oropharyngeal": 7748,
      "##ulinemia": 7749,
      "tendinopathy": 7750,
      "noncontrast": 7751,
      "instrumentation": 7752,
      "circumferent": 7753,
      "opportunistic": 7754,
      "nonetheless": 7755,
      "ausc": 7756,
      "jud": 7757,
      "pfts": 7758,
      "vary": 7759,
      "##rep": 7760,
      "##itz": 7761,
      "##urrence": 7762,
      "forear": 7763,
      "unint": 7764,
      "likley": 7765,
      "overdi": 7766,
      "midzone": 7767,
      "##ultaneous": 7768,
      "fraction": 7769,
      "simultaneous": 7770,
      "coronal": 7771,
      "##cythe": 7772,
      "nonvis": 7773,
      "vsd": 7774,
      "incor": 7775,
      "plateau": 7776,
      "500": 7777,
      "##rophic": 7778,
      "##chiatric": 7779,
      "legs": 7780,
      "recurring": 7781,
      "polycythe": 7782,
      "tendon": 7783,
      "maximum": 7784,
      "ddrt": 7785,
      "##fibrosis": 7786,
      "utis": 7787,
      "cardiomegally": 7788,
      "myelofibrosis": 7789,
      "quadriple": 7790,
      "honeycombing": 7791,
      "unintentional": 7792,
      "polycythemia": 7793,
      "chor": 7794,
      "cvc": 7795,
      "eros": 7796,
      "gy": 7797,
      "gtt": 7798,
      "kle": 7799,
      "lam": 7800,
      "sm": 7801,
      "noct": 7802,
      "injection": 7803,
      "##uminal": 7804,
      "comor": 7805,
      "excre": 7806,
      "##atell": 7807,
      "##gered": 7808,
      "notice": 7809,
      "reside": 7810,
      "interstital": 7811,
      "amorph": 7812,
      "##inflation": 7813,
      "ptbd": 7814,
      "thickenings": 7815,
      "##cyt": 7816,
      "phtn": 7817,
      "##atorenal": 7818,
      "pancoast": 7819,
      "decompressed": 7820,
      "hospitalized": 7821,
      "heparin": 7822,
      "hepatorenal": 7823,
      "curved": 7824,
      "nonsmoker": 7825,
      "acromion": 7826,
      "becom": 7827,
      "##identified": 7828,
      "kinks": 7829,
      "##odgement": 7830,
      "levof": 7831,
      "integ": 7832,
      "revealed": 7833,
      "corticated": 7834,
      "intersection": 7835,
      "determining": 7836,
      "micronod": 7837,
      "readjustment": 7838,
      "ideal": 7839,
      "purposes": 7840,
      "cefep": 7841,
      "captured": 7842,
      "cognitive": 7843,
      "colorectal": 7844,
      "assymetr": 7845,
      "levoflox": 7846,
      "ai": 7847,
      "dam": 7848,
      "##iella": 7849,
      "##uste": 7850,
      "##eal": 7851,
      "##fet": 7852,
      "##bed": 7853,
      "##oration": 7854,
      "___a": 7855,
      "##angular": 7856,
      "##ewise": 7857,
      "proxim": 7858,
      "sequ": 7859,
      "cluste": 7860,
      "substance": 7861,
      "infective": 7862,
      "reliably": 7863,
      "meth": 7864,
      "biop": 7865,
      "gastroduodenal": 7866,
      "artifacts": 7867,
      "cecal": 7868,
      "preoperatively": 7869,
      "choled": 7870,
      "surrounded": 7871,
      "palpable": 7872,
      "rectangular": 7873,
      "depicts": 7874,
      "pnemonia": 7875,
      "allows": 7876,
      "triggered": 7877,
      "##bsiella": 7878,
      "pheresis": 7879,
      "selected": 7880,
      "hemiparesis": 7881,
      "pnuemothorax": 7882,
      "leng": 7883,
      "##alignment": 7884,
      "experi": 7885,
      "likewise": 7886,
      "incorrect": 7887,
      "amorphous": 7888,
      "cefepime": 7889,
      "proximity": 7890,
      "clustered": 7891,
      "fash": 7892,
      "hoff": 7893,
      "lav": 7894,
      "##ror": 7895,
      "##gias": 7896,
      "##erent": 7897,
      "##wort": 7898,
      "notes": 7899,
      "inad": 7900,
      "##urnal": 7901,
      "paid": 7902,
      "indications": 7903,
      "atlectasis": 7904,
      "living": 7905,
      "obt": 7906,
      "parest": 7907,
      "scant": 7908,
      "ethan": 7909,
      "avail": 7910,
      "superficial": 7911,
      "outline": 7912,
      "desc": 7913,
      "thickness": 7914,
      "transamin": 7915,
      "difficile": 7916,
      "notewort": 7917,
      "incontin": 7918,
      "exacerbated": 7919,
      "blur": 7920,
      "blastic": 7921,
      "stabbing": 7922,
      "##psnea": 7923,
      "-->": 7924,
      "widely": 7925,
      "temperatures": 7926,
      "coalescence": 7927,
      "ambul": 7928,
      "ambulating": 7929,
      "sedation": 7930,
      "dypsnea": 7931,
      "decline": 7932,
      "identifiable": 7933,
      "arrival": 7934,
      "klebsiella": 7935,
      "nocturnal": 7936,
      "fashion": 7937,
      "inadver": 7938,
      "noteworthy": 7939,
      "pall": 7940,
      "vi": 7941,
      "vad": 7942,
      "vocal": 7943,
      "##aquin": 7944,
      "##oot": 7945,
      "##kit": 7946,
      "##inodular": 7947,
      "##ioned": 7948,
      "##ulsion": 7949,
      "conversion": 7950,
      "##ube": 7951,
      "conse": 7952,
      "##nif": 7953,
      "pooling": 7954,
      "closed": 7955,
      "recover": 7956,
      "midesophagus": 7957,
      "resist": 7958,
      "signif": 7959,
      "corpectomy": 7960,
      "dysm": 7961,
      "##cussion": 7962,
      "track": 7963,
      "incisional": 7964,
      "spec": 7965,
      "##rance": 7966,
      "hepatectomy": 7967,
      "goes": 7968,
      "accessory": 7969,
      "dislodgement": 7970,
      "admissions": 7971,
      "reassessed": 7972,
      "levaquin": 7973,
      "burkit": 7974,
      "originally": 7975,
      "mediastinitis": 7976,
      "psychiatric": 7977,
      "psychosis": 7978,
      "companion": 7979,
      "##iphoid": 7980,
      "exercise": 7981,
      "nonvisualization": 7982,
      "comorbid": 7983,
      "mis": 7984,
      "meld": 7985,
      "role": 7986,
      "xar": 7987,
      "##ec": 7988,
      "##ess": 7989,
      "##yg": 7990,
      "therapeutic": 7991,
      "reocc": 7992,
      "sirs": 7993,
      "painful": 7994,
      "others": 7995,
      "wetread": 7996,
      "arising": 7997,
      "##ules": 7998,
      "itp": 7999,
      "##icking": 8000,
      "##elto": 8001,
      "compressions": 8002,
      "##through": 8003,
      "benef": 8004,
      "##oplasm": 8005,
      "typically": 8006,
      "dvts": 8007,
      "burst": 8008,
      "rheumatic": 8009,
      "turned": 8010,
      "supplement": 8011,
      "bulbous": 8012,
      "translucency": 8013,
      "tkr": 8014,
      "##loyment": 8015,
      "postpartum": 8016,
      "circumferential": 8017,
      "forearm": 8018,
      "length": 8019,
      "ethanol": 8020,
      "xarelto": 8021,
      "cement": 8022,
      "dome": 8023,
      "nutrition": 8024,
      "table": 8025,
      "vd": 8026,
      "##oked": 8027,
      "##rity": 8028,
      "##cine": 8029,
      "##ert": 8030,
      "ranging": 8031,
      "radiates": 8032,
      "sizeable": 8033,
      "##ective": 8034,
      "multinodular": 8035,
      "##aban": 8036,
      "##obil": 8037,
      "hypoplastic": 8038,
      "patency": 8039,
      "##ologically": 8040,
      "200": 8041,
      "palps": 8042,
      "##romatosis": 8043,
      "cric": 8044,
      "facet": 8045,
      "functional": 8046,
      "egoph": 8047,
      "annuloplasty": 8048,
      "blunts": 8049,
      "bronchopleural": 8050,
      "occasionally": 8051,
      "breakthrough": 8052,
      "cycles": 8053,
      "___pm": 8054,
      "coracoid": 8055,
      "coracoclavicular": 8056,
      "mimic": 8057,
      "healthy": 8058,
      "umbilical": 8059,
      "manipulation": 8060,
      "##ransplant": 8061,
      "excessive": 8062,
      "voice": 8063,
      "underest": 8064,
      "##lycemic": 8065,
      "believe": 8066,
      "hydropneumothoraces": 8067,
      "overexp": 8068,
      "varying": 8069,
      "integrity": 8070,
      "transaminitis": 8071,
      "cand": 8072,
      "fole": 8073,
      "rol": 8074,
      "sj": 8075,
      "sound": 8076,
      "tnf": 8077,
      "##by": 8078,
      "focality": 8079,
      "wee": 8080,
      "supr": 8081,
      "plates": 8082,
      "cooling": 8083,
      "flight": 8084,
      "empir": 8085,
      "##olemic": 8086,
      "geographic": 8087,
      "curls": 8088,
      "said": 8089,
      "plueral": 8090,
      "purs": 8091,
      "iiib": 8092,
      "securely": 8093,
      "defects": 8094,
      "allowances": 8095,
      "##capular": 8096,
      "penumonia": 8097,
      "unrelated": 8098,
      "solitary": 8099,
      "lami": 8100,
      "foley": 8101,
      "?)": 8102,
      "fro": 8103,
      "ham": 8104,
      "him": 8105,
      "spac": 8106,
      "sfa": 8107,
      "##aph": 8108,
      "##ander": 8109,
      "##iative": 8110,
      "##gram": 8111,
      "reb": 8112,
      "##uly": 8113,
      "pneumothroax": 8114,
      "##otility": 8115,
      "##rocyt": 8116,
      "strain": 8117,
      "##ogen": 8118,
      "teeth": 8119,
      "intern": 8120,
      "percussion": 8121,
      "##actor": 8122,
      "midnight": 8123,
      "endograft": 8124,
      "retri": 8125,
      "hypercap": 8126,
      "prur": 8127,
      "devi": 8128,
      "cabgx": 8129,
      "inspect": 8130,
      "flushed": 8131,
      "headed": 8132,
      "developmental": 8133,
      "leukopenia": 8134,
      "osteosarcoma": 8135,
      "palcement": 8136,
      "crrt": 8137,
      "responding": 8138,
      "palpitation": 8139,
      "cystectomy": 8140,
      "laparoscopy": 8141,
      "favored": 8142,
      "angiography": 8143,
      "mtx": 8144,
      "hostage": 8145,
      "adhesions": 8146,
      "arthralgias": 8147,
      "damage": 8148,
      "choledoch": 8149,
      "lavage": 8150,
      "cig": 8151,
      "ladder": 8152,
      "##var": 8153,
      "___th": 8154,
      "stones": 8155,
      "appy": 8156,
      "appl": 8157,
      "pains": 8158,
      "prbc": 8159,
      "acom": 8160,
      "emphas": 8161,
      "stuck": 8162,
      "layer": 8163,
      "pullback": 8164,
      "##pylor": 8165,
      "respond": 8166,
      "trend": 8167,
      "neuros": 8168,
      "##raumatic": 8169,
      "unusually": 8170,
      "bronchopulmonary": 8171,
      "obliterates": 8172,
      "clarified": 8173,
      "protein": 8174,
      "ampullary": 8175,
      "scalp": 8176,
      "drip": 8177,
      "##lining": 8178,
      "tacro": 8179,
      "immunosuppressants": 8180,
      "azithr": 8181,
      "bcg": 8182,
      "acetab": 8183,
      "papillary": 8184,
      "##repair": 8185,
      "micronodules": 8186,
      "dysmotility": 8187,
      "##pyloric": 8188,
      "aka": 8189,
      "gg": 8190,
      "sz": 8191,
      "uop": 8192,
      "##eju": 8193,
      "##iltrate": 8194,
      "##urous": 8195,
      "##chct": 8196,
      "every": 8197,
      "consist": 8198,
      "overlay": 8199,
      "endors": 8200,
      "sugar": 8201,
      "heading": 8202,
      "trached": 8203,
      "persisted": 8204,
      "##iance": 8205,
      "sinusitis": 8206,
      "mycet": 8207,
      "vagus": 8208,
      "130": 8209,
      "##etermined": 8210,
      "blast": 8211,
      "steps": 8212,
      "treating": 8213,
      "neoad": 8214,
      "costovertebral": 8215,
      "coincides": 8216,
      "suctioning": 8217,
      "undetermined": 8218,
      "extrathoracic": 8219,
      "hypervolemia": 8220,
      "torturous": 8221,
      "humira": 8222,
      "confidently": 8223,
      "gyne": 8224,
      "incontinence": 8225,
      "palliative": 8226,
      "##ejunal": 8227,
      ");": 8228,
      "bms": 8229,
      "cf": 8230,
      "dic": 8231,
      "eq": 8232,
      "pill": 8233,
      "##iocytosis": 8234,
      "##oesophageal": 8235,
      "##rot": 8236,
      "##rud": 8237,
      "##tled": 8238,
      "##inction": 8239,
      "##aries": 8240,
      "##atology": 8241,
      "##orement": 8242,
      "##ffy": 8243,
      "##ister": 8244,
      "##resh": 8245,
      "sill": 8246,
      "##houette": 8247,
      "class": 8248,
      "##struct": 8249,
      "##osclerosis": 8250,
      "shin": 8251,
      "visit": 8252,
      "superolateral": 8253,
      "outlining": 8254,
      "distinction": 8255,
      "confined": 8256,
      "symptomatology": 8257,
      "cholecystostomy": 8258,
      "neurological": 8259,
      "homeless": 8260,
      "conduction": 8261,
      "denies": 8262,
      "distinctly": 8263,
      "angioplasty": 8264,
      "discordancy": 8265,
      "radiolucent": 8266,
      "dynamic": 8267,
      "capsule": 8268,
      "locules": 8269,
      "levofloxacin": 8270,
      "##rocytoma": 8271,
      "azithromycin": 8272,
      "dj": 8273,
      "gluc": 8274,
      "ke": 8275,
      "pills": 8276,
      "til": 8277,
      "wish": 8278,
      "yrs": 8279,
      "##oaff": 8280,
      "##hesis": 8281,
      "##umonia": 8282,
      "induction": 8283,
      "##anger": 8284,
      "examine": 8285,
      "untre": 8286,
      "moving": 8287,
      "clock": 8288,
      "midsh": 8289,
      "hyste": 8290,
      "butt": 8291,
      "paran": 8292,
      "##aged": 8293,
      "##ptic": 8294,
      "design": 8295,
      "lymphocytic": 8296,
      "fix": 8297,
      "ijv": 8298,
      "cxrs": 8299,
      "incision": 8300,
      "nipples": 8301,
      "trun": 8302,
      "...": 8303,
      "rug": 8304,
      "adeno": 8305,
      "neurogenic": 8306,
      "##uckle": 8307,
      "survey": 8308,
      "entities": 8309,
      "exudate": 8310,
      "excreted": 8311,
      "paresthesias": 8312,
      "inadvertent": 8313,
      "benefit": 8314,
      "##oaffective": 8315,
      "untreated": 8316,
      "midshaft": 8317,
      "hysterectomy": 8318,
      "dipl": 8319,
      "ht": 8320,
      "lent": 8321,
      "lot": 8322,
      "mant": 8323,
      "tlc": 8324,
      "veg": 8325,
      "##iver": 8326,
      "##uine": 8327,
      "##itory": 8328,
      "inject": 8329,
      "compromised": 8330,
      "proportion": 8331,
      "seg": 8332,
      "##opia": 8333,
      "asa": 8334,
      "prerenal": 8335,
      "airb": 8336,
      "paralyzed": 8337,
      "scope": 8338,
      "visibility": 8339,
      "anginal": 8340,
      "wheel": 8341,
      "reliable": 8342,
      "anteroposterior": 8343,
      "vertebroplasties": 8344,
      "ones": 8345,
      "lymphaden": 8346,
      "aforement": 8347,
      "tbna": 8348,
      "justified": 8349,
      "differentiated": 8350,
      "eventrated": 8351,
      "##juvant": 8352,
      "treitz": 8353,
      "symmetry": 8354,
      "thrombo": 8355,
      "iiia": 8356,
      "issue": 8357,
      "##insic": 8358,
      "nephrolithiasis": 8359,
      "opposite": 8360,
      "fellow": 8361,
      "maximal": 8362,
      "unsteadiness": 8363,
      "childhood": 8364,
      "denoting": 8365,
      "ingu": 8366,
      "tsicu": 8367,
      "ileocecectomy": 8368,
      "comorbidities": 8369,
      "underestimated": 8370,
      "hamart": 8371,
      "cigar": 8372,
      "mantle": 8373,
      "aforementioned": 8374,
      "/?": 8375,
      "pen": 8376,
      "sq": 8377,
      "sma": 8378,
      "xiphoid": 8379,
      "##ony": 8380,
      "##onca": 8381,
      "##les": 8382,
      "##itating": 8383,
      "isout": 8384,
      "##ispy": 8385,
      "##ollen": 8386,
      "ort": 8387,
      "consult": 8388,
      "postin": 8389,
      "consolidationct": 8390,
      "anulus": 8391,
      "##astia": 8392,
      "malalignment": 8393,
      "aspirations": 8394,
      "display": 8395,
      "##upright": 8396,
      "swollen": 8397,
      "emp": 8398,
      "cvid": 8399,
      "strip": 8400,
      "obese": 8401,
      "sideholes": 8402,
      "clots": 8403,
      "aspergilloma": 8404,
      "anticoagulated": 8405,
      "schizoaffective": 8406,
      "measured": 8407,
      "mari": 8408,
      "caudal": 8409,
      "parasternal": 8410,
      "##comastia": 8411,
      "auscultation": 8412,
      "sequence": 8413,
      "overexpanded": 8414,
      "acetabular": 8415,
      "mycetoma": 8416,
      "gynecomastia": 8417,
      "##oncave": 8418,
      "84": 8419,
      "bright": 8420,
      "el": 8421,
      "fut": 8422,
      "pouch": 8423,
      "rise": 8424,
      "uip": 8425,
      "wispy": 8426,
      "##ius": 8427,
      "##ynamic": 8428,
      "##ercing": 8429,
      "##itrate": 8430,
      "increases": 8431,
      "congl": 8432,
      "##aned": 8433,
      "indirect": 8434,
      "notic": 8435,
      "tuber": 8436,
      "processed": 8437,
      "peria": 8438,
      "respiration": 8439,
      "prom": 8440,
      "fluffy": 8441,
      "referable": 8442,
      "thymic": 8443,
      "deterior": 8444,
      "embolectomy": 8445,
      "error": 8446,
      "diverting": 8447,
      "entrance": 8448,
      "runny": 8449,
      "piercing": 8450,
      "mailed": 8451,
      "augment": 8452,
      "member": 8453,
      "sscp": 8454,
      "##pendent": 8455,
      "fluctuating": 8456,
      "porcine": 8457,
      "anastamosis": 8458,
      "unresolved": 8459,
      "noticeable": 8460,
      "bioprosthetic": 8461,
      "blurry": 8462,
      "diplopia": 8463,
      "airbag": 8464,
      "inguinal": 8465,
      "conglomer": 8466,
      "92": 8467,
      "bund": 8468,
      "gem": 8469,
      "item": 8470,
      "ktal": 8471,
      "ls": 8472,
      "mra": 8473,
      "mediast": 8474,
      "pj": 8475,
      "rcu": 8476,
      "rub": 8477,
      "vre": 8478,
      "##patient": 8479,
      "##cs": 8480,
      "##30": 8481,
      "##idal": 8482,
      "##ranting": 8483,
      "##ulmin": 8484,
      "##ana": 8485,
      "formed": 8486,
      "atn": 8487,
      "atraumatic": 8488,
      "tevar": 8489,
      "histiocytosis": 8490,
      "silhouetted": 8491,
      "mob": 8492,
      "alb": 8493,
      "subphrenic": 8494,
      "mins": 8495,
      "spo": 8496,
      "spoke": 8497,
      "remod": 8498,
      "remove": 8499,
      "##apse": 8500,
      "entertained": 8501,
      "semiupright": 8502,
      "pressor": 8503,
      "resulted": 8504,
      "150": 8505,
      "##rising": 8506,
      "presumpt": 8507,
      "****": 8508,
      "father": 8509,
      "anest": 8510,
      "fuo": 8511,
      "warranting": 8512,
      "organized": 8513,
      "infxn": 8514,
      "skull": 8515,
      "stages": 8516,
      "ugi": 8517,
      "supplemental": 8518,
      "stopped": 8519,
      "reversed": 8520,
      "quadriplegia": 8521,
      "becomes": 8522,
      "inspection": 8523,
      "neurosurg": 8524,
      "neoadjuvant": 8525,
      "ortho": 8526,
      "ktalati": 8527,
      "(+": 8528,
      "achi": 8529,
      "drow": 8530,
      "jew": 8531,
      "kap": 8532,
      "sag": 8533,
      "xplant": 8534,
      "##ojejunostomy": 8535,
      "##nl": 8536,
      "##rel": 8537,
      "nocardia": 8538,
      "constric": 8539,
      "##rog": 8540,
      "##isthesis": 8541,
      "##amine": 8542,
      "chond": 8543,
      "opaciti": 8544,
      "notch": 8545,
      "lij": 8546,
      "uptre": 8547,
      "anc": 8548,
      "shil": 8549,
      "visually": 8550,
      "lymp": 8551,
      "120": 8552,
      "##elry": 8553,
      "ems": 8554,
      "bleomycin": 8555,
      "decitabine": 8556,
      "myocarditis": 8557,
      "pancreatectomy": 8558,
      "rotational": 8559,
      "cea": 8560,
      "runs": 8561,
      "guid": 8562,
      "testing": 8563,
      "precisely": 8564,
      "vtach": 8565,
      "horizontally": 8566,
      "##oining": 8567,
      "stools": 8568,
      "practically": 8569,
      "evaulate": 8570,
      "extravas": 8571,
      "assymetric": 8572,
      "jewelry": 8573,
      "kaposi": 8574,
      "75": 8575,
      "?,": 8576,
      "bit": 8577,
      "cyt": 8578,
      "dah": 8579,
      "rf": 8580,
      "##iosis": 8581,
      "##ield": 8582,
      "##point": 8583,
      "ther": 8584,
      "##dient": 8585,
      "##ouette": 8586,
      "##net": 8587,
      "pleas": 8588,
      "normalization": 8589,
      "edematous": 8590,
      "lima": 8591,
      "recrud": 8592,
      "likeli": 8593,
      "enlarge": 8594,
      "aorto": 8595,
      "hap": 8596,
      "consistently": 8597,
      "coron": 8598,
      "distracted": 8599,
      "##lover": 8600,
      "syn": 8601,
      "transport": 8602,
      "gradient": 8603,
      "flag": 8604,
      "epi": 8605,
      "doct": 8606,
      "preceded": 8607,
      "entirety": 8608,
      "vaginal": 8609,
      "peep": 8610,
      "hematomas": 8611,
      "grafts": 8612,
      "##juana": 8613,
      "valvul": 8614,
      "nephritis": 8615,
      "conditions": 8616,
      "lactic": 8617,
      "affected": 8618,
      "restriction": 8619,
      "reevaluated": 8620,
      "issued": 8621,
      "distinguishing": 8622,
      "connective": 8623,
      "rsxn": 8624,
      "displaces": 8625,
      "impinging": 8626,
      "degenerate": 8627,
      "accidentally": 8628,
      "dyspneic": 8629,
      "rhabdomy": 8630,
      "description": 8631,
      "rollover": 8632,
      "marijuana": 8633,
      "uptrending": 8634,
      "likelihood": 8635,
      "cdi": 8636,
      "##iar": 8637,
      "##no": 8638,
      "##hr": 8639,
      "##hx": 8640,
      "##isms": 8641,
      "##rays": 8642,
      "plex": 8643,
      "imm": 8644,
      "##olithiasis": 8645,
      "ram": 8646,
      "apml": 8647,
      "radial": 8648,
      "pair": 8649,
      "pret": 8650,
      "##kend": 8651,
      "hemoper": 8652,
      "whole": 8653,
      "sliver": 8654,
      "hands": 8655,
      "vasculatures": 8656,
      "simulating": 8657,
      "twel": 8658,
      "swe": 8659,
      "intraventricular": 8660,
      "intraaortic": 8661,
      "predisp": 8662,
      "esld": 8663,
      "differentiation": 8664,
      "crp": 8665,
      "myelomatous": 8666,
      "dizzy": 8667,
      "intermitt": 8668,
      "mottled": 8669,
      "safet": 8670,
      "sources": 8671,
      "##psia": 8672,
      "undergo": 8673,
      "discrep": 8674,
      "reaccumulating": 8675,
      "manifestations": 8676,
      "remnants": 8677,
      "##ushing": 8678,
      "constitution": 8679,
      "rny": 8680,
      "modalities": 8681,
      "mandibular": 8682,
      "answ": 8683,
      "sclerosing": 8684,
      "malfunctioning": 8685,
      "bronchoalveolar": 8686,
      "timed": 8687,
      "rituximab": 8688,
      "simultaneously": 8689,
      "recovering": 8690,
      "weekend": 8691,
      "safety": 8692,
      "dub": 8693,
      "dressing": 8694,
      "fulmin": 8695,
      "hoc": 8696,
      "langer": 8697,
      "tah": 8698,
      "##ences": 8699,
      "___y": 8700,
      "inade": 8701,
      "inpatient": 8702,
      "reidentified": 8703,
      "##ammatory": 8704,
      "unco": 8705,
      "chick": 8706,
      "##resion": 8707,
      "onc": 8708,
      "bel": 8709,
      "abnormally": 8710,
      "##osa": 8711,
      "##lower": 8712,
      "surp": 8713,
      "##appro": 8714,
      "performance": 8715,
      "##olent": 8716,
      "tbili": 8717,
      "discitis": 8718,
      "effu": 8719,
      "truly": 8720,
      "curling": 8721,
      "kyphoscoliosis": 8722,
      "terms": 8723,
      "ileal": 8724,
      "virus": 8725,
      "##rauma": 8726,
      "mastectomies": 8727,
      "collar": 8728,
      "annual": 8729,
      "plana": 8730,
      "##calc": 8731,
      "pfo": 8732,
      "tests": 8733,
      "managed": 8734,
      "stranding": 8735,
      "smoothly": 8736,
      "thymoma": 8737,
      "dcd": 8738,
      "paracardiac": 8739,
      "mammary": 8740,
      "tripolar": 8741,
      "##aryngitis": 8742,
      "duo": 8743,
      "gastritis": 8744,
      "egophony": 8745,
      "noticed": 8746,
      "anesthesia": 8747,
      "langerhan": 8748,
      "inadequ": 8749,
      "chicken": 8750,
      "+/": 8751,
      "83": 8752,
      "bab": 8753,
      "came": 8754,
      "center": 8755,
      "cram": 8756,
      "hid": 8757,
      "mag": 8758,
      "owing": 8759,
      "vv": 8760,
      "went": 8761,
      "##iatic": 8762,
      "##rical": 8763,
      "##ezing": 8764,
      "##cav": 8765,
      "##static": 8766,
      "##icial": 8767,
      "##umonary": 8768,
      "convers": 8769,
      "connection": 8770,
      "cardiou": 8771,
      "##ogren": 8772,
      "rads": 8773,
      "aplastic": 8774,
      "##istinal": 8775,
      "abpa": 8776,
      "bilious": 8777,
      "anca": 8778,
      "postt": 8779,
      "fecal": 8780,
      "##osph": 8781,
      "aortosclerosis": 8782,
      "##aging": 8783,
      "hyperpar": 8784,
      "##renced": 8785,
      "avf": 8786,
      "corrob": 8787,
      "degra": 8788,
      "scaring": 8789,
      "junctions": 8790,
      "##ologous": 8791,
      "redu": 8792,
      "heterotopic": 8793,
      "platelet": 8794,
      "documenting": 8795,
      "curving": 8796,
      "hemolytic": 8797,
      "aneurysmatic": 8798,
      "referenced": 8799,
      "##ishing": 8800,
      "interest": 8801,
      "rectum": 8802,
      "organisms": 8803,
      "autologous": 8804,
      "denotes": 8805,
      "##nected": 8806,
      "investigate": 8807,
      "macro": 8808,
      "penumothorax": 8809,
      "dystrophy": 8810,
      "dystrophic": 8811,
      "psoriatic": 8812,
      "ambulatory": 8813,
      "sjogren": 8814,
      "glucose": 8815,
[...]
